1111010110110000
0000100011110100
1111011101001100
1111101100110101
0000110000100010
0000010110011110
0000101101110001
0000001000000010
1111100111010000
0000011011111110
1111010010101011
1111110000011101
1111110011100101
0000011111101010
1111001110001110
0000000101010100
1111101000010101
0000100100110101
0000010011110001
1111101111100101
1111110100010001
1111111000001011
1111110101011011
1111100100101110
0000001001000110
0000000111100100
0000011111000010
1111111111100111
0000000111001001
1111101101111110
0000000010000111
1111110111110001
0000100010011011
1111110010001111
1111110000100010
1111010100010101
0000101000111111
0000000110000110
0000010100001111
0000110010010000
1111101110111011
0000011101101010
0000101101000000
0000000011010010
1111101001010110
0000010100110010
1111111111100110
0000001001101011
1111101000010111
0000001000100010
0000010101001001
1111111101111111
1111100110001111
0000101101010100
0000110000101001
1111101011101101
1111110100100011
0000010000100001
0000100010010011
0000011000100010
1111110000100011
0000010000000001
1111111111100010
0000110001001101
0000110000101100
0000000111110100
0000010010100000
1111100001111111
1111110010100011
1111011000010001
1111110111100101
1111100010000101
1111100001111001
0000001110011001
1111101111101100
1111110111111001
0000010011100100
1111101110111011
0000100110010001
0000100000101000
0000101111110001
1111101010010110
0000110010100111
1111100001000111
0000001111110001
0000101011110110
1111110010010000
0000011011111011
1111111011010100
0000001111001011
0000110001011110
1111010000101001
1111011010110101
1111111010101011
0000100001100011
1111101100011000
1111101010100001
1111111011000110
1111100110111111
1111011110000111
0000100110001001
0000101010111101
0000001110010001
0000101011001010
0000001011111101
1111011010111011
0000100000110011
0000001011011101
1111101110000010
0000100011000110
0000110000000011
1111010101100001
0000011000101100
1111101100111101
1111110100101011
1111011001011000
0000101001000011
1111010111011100
0000101000000010
1111001110010011
0000100110010000
1111111001001100
1111101001111100
0000001111011011
1111110001110111
0000011000110001
1111011000010000
1111110000011101
