0000011001100110
0000011001100110
0000011001100110
0000011001100110
1111100110011010
1111100110011010
1111100110011010
0000011001100110
1111100110011010
0000011001100110
0000011001100110
0000011001100110
0000011001100110
0000011001100110
1111100110011010
1111100110011010
0000011001100110
1111101000110010
0000011001100110
0000011001100110
0000011001100110
0000011001100110
0000011001100110
1111100110011010
0000011001100110
0000010001000011
0000011001100110
1111100110011010
0000011001100110
0000011001100110
1111100110011010
1111100110011010
0000011001010100
0000011001100110
0000011001100110
1111101111010111
1111100110011010
0000011001100110
1111100110011010
1111100110011010
1111100110011010
0000011001100110
0000000101011100
0000011001100110
1111100110011010
1111100110011010
0000011001100110
0000011001100110
0000011001100110
0000011001100110
0000010101111100
1111110001000010
0000011001100110
0000011001100110
0000011001100110
1111100110011010
0000011001100110
1111100110011010
1111100110011010
1111100110011010
1111100110100110
1111100110011010
0000011001100110
0000011001100110
0000011001100110
0000000111000110
1111100110011010
0000011001100110
0000011001100110
0000011001100110
0000011001100110
0000011001100101
0000011001100110
1111100110011010
0000011001100110
0000011001100110
0000011001100110
0000011001100110
1111100110011010
1111100110011010
1111101000110010
0000011001100110
1111100110011010
1111100110011010
1111100110011010
0000000101100001
0000011001100110
1111100110011010
0000011001100110
1111100110011010
0000011001100110
0000011001100110
0000011001100110
1111100110011010
1111100110011010
0000011001100110
0000011001100110
0000011001100110
0000011001100110
0000011001100110
0000011001100110
0000011001100110
0000011001100110
0000011001100110
1111100110011010
0000011001100110
0000011001100110
0000011001100110
0000011001100110
1111100110011010
0000011001100110
0000011001100110
1111100110011010
1111100110011010
1111101101010000
0000011001100110
1111100110011010
0000011001100110
1111100110011010
1111100110011010
0000011001100110
1111100110011010
1111100110011010
1111100110011010
0000011001100110
0000011001100110
1111100110011010
0000011001100110
1111100110011010
1111111101110100
1111100110101000
1111110011100101
0000010101101010
1111111111100111
1111110000100010
0000010110000110
0000010101001100
0000010100010110
0000010100001011
0000000010111001
1111110100100101
0000010010111001
0000001010101110
0000010101101001
1111110000010100
0000010110110000
1111100110011010
1111100110011010
1111110100111100
1111100110011010
1111110001001111
1111100110011010
0000000101001101
1111111111101001
0000011001100110
1111100110011010
1111101110100101
1111110010011001
1111100110011010
1111110000100011
0000010110111010
0000010100000110
0000010110110111
0000010100011100
0000011001100110
0000011001100110
1111100110011010
1111100110110011
1111100110011010
1111100110011010
0000000001100010
0000000010010100
0000001110000110
1111101000110010
1111101110001000
1111100111101011
0000010101100000
0000000100100000
1111100110011010
1111100110011010
0000010010111101
1111100110011010
1111110111100111
1111100110011010
1111111011111000
1111110100000101
0000001101000000
0000000001000111
0000000100110110
0000001111011010
1111100111000001
1111100110011010
0000011001000011
1111100110011010
0000011001100110
1111111001000001
0000010101011010
0000010110000111
0000000001011101
1111100110011010
0000010011010010
1111100110011010
1111100110011010
1111100110011010
1111111111100110
1111111100110001
1111101011010011
1111100110011010
0000000010001110
0000000011000101
1111101001101110
0000010100011101
0000011001001101
0000001011001111
1111111101011000
1111100110011010
1111101100111111
1111100110011010
0000010100010001
1111100110011010
1111110011111000
0000001010101010
1111111010110010
0000000110110001
1111100110011010
1111101010111100
1111110101011100
0000001110101110
0000000111000101
0000010110010001
0000011001001011
0000000111100101
1111111010101000
1111111000111011
1111101110100011
1111100110011010
1111101000010001
1111111010001011
1111111111100111
1111111101011101
0000010011110110
1111100110011010
1111100110011010
1111110101110101
1111100110011010
0000000101110011
0000010011110000
1111101000101010
1111100110011010
1111110110101011
0000001101010101
0000000101000101
0000010100110000
1111100110011010
1111100110011010
1111110100111100
0000011001011100
0000011001100011
0000011001100101
0000011001100110
0000011001100110
1111100110011010
0000011001100110
0000011001100110
1111100110011010
0000011001100110
0000011001100110
0000011001100110
0000011001000001
0000011001100110
1111110111110011
1111100110011010
0000011001100110
1111101000001110
0000011001100110
0000011001100110
0000011001100110
0000011001100110
0000011001100110
0000011001100110
0000011001100110
1111101010010111
0000011001100110
1111100110011010
0000011001100110
1111100110011010
1111100110011010
0000011001100110
1111100110011010
0000011001100110
0000011001100110
0000011001100110
1111100110011010
0000011001100110
1111100110011010
1111100110011010
0000011001100110
0000011001100110
1111100110011010
0000011001100110
1111100110011010
1111100110011010
1111100110011010
0000011001100110
0000011001100110
0000011001010110
0000011001100110
1111111001101000
1111100110011010
1111100110011010
0000011001100110
0000011001100110
1111100110011010
0000011001100110
1111100110011010
0000011001100110
1111100110011010
1111100110011010
0000011001100110
0000011001100110
0000011001100110
1111100110011010
1111101001111001
0000011001100110
0000011001100110
0000011001100101
0000011001100110
1111100110011010
0000010010010101
1111100110011010
0000011001100110
1111100110011010
0000011001100110
0000011001100110
1111101010010000
0000011001100110
1111101001111100
1111100110011010
0000011001100110
1111100110011010
1111101110101111
0000011001100110
1111111010011110
1111100111100011
1111100110011010
1111100110011010
0000011001100110
0000011001100110
0000011001100110
1111100110011010
1111110100011010
0000011001100110
0000011001100110
1111100110011010
0000011001100110
0000011001100011
0000011001100110
0000011001100110
0000011001100110
0000011001100110
0000011001100110
1111100110011010
0000011001100110
1111100110011010
1111100110011010
1111100110011010
0000011001100110
1111100110011010
0000011001100110
1111101001000010
0000011001100110
0000011001100110
0000011001100110
1111100110011010
1111100110011010
1111101001110110
0000011001100110
0000011001100110
1111100110011010
0000011001100110
0000011001100110
0000011001100110
1111100110011010
0000011001100110
0000011001100110
0000011001100110
0000011001100110
1111100110011010
1111100110011010
0000011001100110
1111100110011010
0000011001100110
0000010010000111
0000011001100110
0000011001100110
0000011001100110
0000011001100110
0000011001100110
1111100110011010
0000011001100110
0000011001100110
0000011001100110
0000011001100110
1111100110011010
0000011001100110
0000011001100110
0000011001100110
1111100110011010
1111100110011010
0000011001100011
0000011001100110
0000011001100010
1111110100011100
0000011001100110
0000001111011110
1111100110011010
0000011001100110
1111100110011010
1111100110011010
1111100110011010
1111100110011010
0000011001100110
0000011001100110
1111100110011010
1111100110011010
1111100110011010
0000011001100110
0000011001100110
0000010010110001
1111100110011010
0000011001011111
1111100110011010
0000011001100110
0000011001100110
0000011001100110
0000010101001101
0000011001100110
0000011001100110
0000011001100110
1111100110011010
0000011001100110
1111100110111000
1111100110011010
1111100110011010
0000011001100110
0000011001100110
0000011001100110
0000000101011101
1111100110011010
0000011001100110
1111100110011010
1111100110011010
1111100110011010
0000011001100110
1111101100011001
0000011001100110
0000011001100110
0000011001100001
1111111101000001
0000011001100110
0000011001100110
1111100110011010
0000011001100110
1111100110011010
1111100110011010
0000011001100110
1111100110011010
1111100110011010
1111100110011010
1111100110011010
0000011001100110
0000011001100110
0000011001100110
0000011001100110
1111100110011010
0000011001100110
1111100110011010
0000011001100110
1111101100110110
0000011001100110
1111100110011101
0000011001100110
1111100110011010
0000011001100110
1111100110011010
0000011001100110
0000011001100110
0000011001100110
1111100110100010
0000011001100110
0000011001100110
0000011001100110
0000011001100110
1111100110011010
1111100111010101
0000011001100110
1111100110011010
0000011001001010
1111100110011010
1111100110011010
1111100110011010
0000011001100110
1111100110011010
1111100110011010
0000011001100110
1111100110011010
0000011001100110
1111100110011010
0000011001100110
1111100110011010
0000011001100101
0000011001100110
1111100110011010
0000011001100110
0000011001100110
0000011001100110
1111100110011110
0000011001100110
1111100110011010
1111100110011111
0000011001100110
1111100110011010
1111100110011010
1111100110011010
0000011001100110
1111111101001011
1111100110011010
0000011001100110
1111100110101010
1111100110011010
1111100110100011
0000011001100110
0000011001100110
0000011001100110
0000011001100110
0000011001100110
1111100110011010
1111100110011010
0000011001100110
0000011001100110
0000011001100110
1111100110011010
0000011001100110
1111100110011010
0000011001100110
0000011001100110
1111100110011010
0000011001100110
1111100110011010
0000011001100110
0000011001100110
0000011001100110
1111100110110001
1111100110110100
1111100110011010
0000011001100110
0000011001100110
0000011001100110
0000011001100110
0000011001100110
0000011001100110
0000011001100110
1111100111000100
1111101010010100
0000011001100110
0000011001100110
0000011001100110
1111100110011010
0000011001100110
0000011001100110
0000011001100110
0000011001100110
0000011001100110
0000011001100110
0000011001100110
1111100110011010
0000011001100110
0000011001100110
1111101001001100
1111100110011010
0000011001100110
0000011001100110
1111100111000000
0000011001100110
0000011001100110
0000011001100110
1111100110100100
1111100110100000
0000011001100110
1111100110101010
0000011001100110
1111100110011010
0000011001100110
1111100110011010
1111100110011010
0000011001100110
1111100110100011
1111101000010010
0000011001100110
0000011001100110
0000011001100110
0000011001100110
0000011001100110
1111100110011010
1111100110011010
0000011001100110
1111111110100000
0000011001100110
0000011001100110
1111100110011010
1111100110011010
1111100110111110
0000011001100110
1111111001100100
1111101111111011
0000011001100110
1111100110011010
0000011001100110
1111100110101000
0000011001100110
1111100110011010
0000011001100110
1111100110101000
0000011001100110
1111100110100100
0000011001100110
0000011001100110
0000011001100110
1111100110011010
1111100110011100
0000011001100110
1111100110011110
0000011001100110
1111100110011010
0000011001100110
0000011001100110
0000011000100001
1111100110011010
0000011001100110
0000011001100110
1111100110011010
0000011001001111
1111100110011010
0000011001100110
0000011001100110
1111100110100000
1111100110011010
0000011001100110
0000011001100110
0000011001010101
0000011001100110
0000011001100110
0000011001100110
1111100110011010
1111100110011010
1111100110011010
0000011001100110
0000011001100110
0000000110110001
0000011001100110
1111100110011010
1111100110011010
1111100110011010
0000011001100110
0000011001100110
1111100110011010
0000011001100110
0000011001100110
0000011001100110
0000011001100110
0000011001100110
1111100110011010
0000011001100110
0000011001100110
0000011001100110
0000011001100110
1111100110111000
0000011001100110
1111100110011010
0000011001100110
1111100110011010
0000011001100110
0000011001100110
1111100110011010
1111100110011010
0000011001100110
0000011001100110
0000011001100110
1111100110011010
1111100110011010
1111100110011010
0000011001100110
0000011001100110
1111100110111110
0000011001100110
1111100110011010
0000011001100110
1111100110011010
0000011001100110
1111100111000011
0000011001100110
0000011001100110
1111100110011010
0000011001100110
0000011001100110
1111100110011010
0000001001001100
0000011001100110
0000011001100110
0000011001011100
0000011001100110
0000011001100110
0000011001100110
1111100110011010
0000011001100110
1111100110011010
1111100110011010
0000011001100110
1111100110011010
1111100110011010
0000011001100110
0000011001100110
1111100110011010
0000011001100110
0000011001100110
0000011001100110
0000011001100110
1111100110011010
0000011001100110
1111100110011010
0000011001100110
0000011001100110
0000011001100110
0000011001100110
1111100110011010
1111100110011010
0000011001100110
0000011001100110
0000011001100110
1111100110011010
0000011001100110
1111100110011010
1111100110011010
0000011001100110
0000011001100110
0000011001100110
0000011001100110
0000011001010011
0000010111001110
0000011001100110
0000011001100110
0000011001100110
0000011001100110
1111100110011010
0000011001100110
0000011001100110
1111100110011010
0000011001100110
0000011001100110
0000011001100110
0000011001100110
0000011001100110
1111100110011010
1111100110100111
1111100110011010
0000011001100110
0000011001100110
0000011001100110
0000001010101111
1111100110011010
0000000001010011
1111100111001001
1111100111000101
1111100110011010
0000000010111010
0000010100111110
1111101000000001
0000010011110011
1111111001000110
1111100110011010
1111110000110000
0000000111010001
1111101110000010
1111101110000011
0000010010000011
1111111010100110
1111100110011010
0000000011100001
1111100110011010
1111100110011010
1111101001010010
0000000100101101
0000000000001100
1111111101101100
0000011001100110
0000010011001000
1111101100011001
1111100110011010
0000000111111000
1111101000110110
0000000010111111
1111111101101111
1111101010100101
1111101000001100
0000010110011010
0000011001000010
0000011001100110
0000000100101101
1111100110011010
1111111101111001
1111110101100001
0000010110011001
1111101011110101
0000010110101000
1111100110011010
0000011001100110
1111101110101100
1111101011110010
1111110001001110
0000010110100100
1111100110011010
0000000101001100
1111110100010001
1111110110011001
1111100110110100
1111110100011111
1111100110011010
1111101101111101
1111111100000110
0000010111111111
0000000010001010
0000010100000110
1111110110111100
0000010101011101
0000011001100110
1111111010010101
1111100110011010
1111110001010110
1111101100110000
1111110111110000
0000010010011110
1111100110011010
0000010011001001
1111111101000100
0000010010100110
1111111001010111
1111101001010100
0000010110100100
1111110100011011
0000010101111101
1111100110011010
0000001010101111
1111100110100011
1111100110011010
1111100111010111
1111101010111100
1111100110011010
0000011000110101
0000010001111010
1111110010100000
0000000001010000
0000011000111111
1111110100101110
0000010100001101
0000010101010101
0000010100000001
0000010101000010
1111111001001011
0000000011100111
0000000000110101
0000010011101011
1111100110011010
0000001011011010
0000010101001100
0000010110001001
1111101111101000
1111110110101101
0000010010001010
1111110100010010
1111101011110011
0000000010001011
0000011000010011
0000010011101101
1111101101011011
0000010101001011
0000010011000011
1111100110011010
0000010000000100
0000000011111010
0000010110101101
0000000000100100
1111111011100010
1111100110011010
0000001101010111
1111100110110100
1111100110011010
0000011001100110
0000011001001001
1111100110011010
0000011001100110
0000011001100110
1111100110011010
0000011001100110
0000011001100110
1111100110011010
0000011001100110
0000011001100110
0000011001100110
1111100110011010
0000011001100110
0000011001100110
1111100110011010
0000011001100110
0000011001100110
0000011001100110
0000011001001100
0000011000101100
1111100110011010
0000000001100100
0000011001100110
0000011001100110
0000011001100110
1111100110011010
0000010111100000
0000011001100110
0000011001100110
1111100110011010
0000011001100110
1111100110011010
0000011001100110
0000011001100110
0000011001100110
0000011001100110
0000011001011110
1111100110011010
1111100110011010
0000011001100110
0000011001100110
0000011001100110
1111100110011010
1111100110011010
1111100110011010
1111100110011010
0000011001100110
1111100110011010
1111100110011010
0000011001011000
1111100110101110
1111100110100110
0000010111100001
1111100110011010
0000011001100110
1111100110011010
1111100110011010
0000011001100110
0000011001100110
1111100110011010
1111100110011010
1111100110011010
0000011001100110
0000011000101110
1111100110011010
0000000101110100
0000011001100110
0000011001100110
0000011001010000
0000011001100110
1111100110011010
1111100110011010
1111100110011010
0000011001100110
1111111000000000
1111100110011010
0000011001100110
0000001111101111
0000011001100110
0000010111001111
0000011001100110
0000011001100110
1111100110011010
0000011001100110
0000011001100110
1111100110011010
1111100110011010
1111101000110000
1111100110011010
0000011001100110
0000011001100110
0000011001100110
1111100110011010
1111101001111011
1111100110011010
0000011001100110
0000011001100110
0000011001100110
0000011001100110
0000011001100110
0000011001010000
0000011000101101
1111100110011010
0000011001100110
1111100110101111
0000011001100110
1111100111000011
0000011001100110
1111100110011010
0000011001100110
1111100110011010
0000011001100110
0000010111110111
0000011001100110
0000011001100110
0000011001100110
0000011001100110
0000011000111101
0000011001100110
0000011001011111
0000011001100110
1111100110011010
0000011001100110
0000011001100110
0000011001100110
1111100110011010
1111100110011010
1111100110011010
0000011001100110
1111100110011110
0000011001100110
0000011001100110
0000011001100110
1111100110011010
0000010010110001
0000011001100110
1111100110011010
1111100110011011
1111100110011100
0000011001100110
1111100110011010
1111100110011010
0000011001100110
0000001000101010
1111100110111010
1111100110011010
0000011001100110
1111100110011010
1111100110011010
1111100110011010
0000011001100110
1111100110011010
1111100110011010
0000011001100110
0000011001100110
0000011001100110
1111100110011010
0000011001100110
1111100110011010
0000011001100110
0000011001100110
1111100110011010
0000011001100110
0000011000100110
0000011001100110
0000011001100110
0000011001100110
1111100110011101
0000011001100110
0000011001100110
1111100110011010
0000011001100110
0000011001100110
0000011001100110
0000011001100110
1111100110011010
1111100110011010
1111100110011010
0000000100100111
0000011001100110
0000011001100110
0000011001100110
1111100110011010
0000011001100110
0000011001010011
0000011001100110
0000011001100110
0000011001100110
0000011001100110
1111100110011010
1111100110101011
0000011001100110
0000011001100110
1111101001101111
1111100110011101
0000011001100110
0000011001100110
0000011001100110
0000011001100110
0000011001100110
0000011001100110
0000011001100110
1111100110011010
1111100110011010
0000011001100110
1111100110111111
1111100110011010
0000010110010101
1111100110011010
1111100110011010
0000011001100110
0000000110100110
0000011001100110
1111100110011010
1111100111101011
0000011001100110
0000011001100110
0000011001100110
1111100110100111
1111100110011010
0000011001100110
1111110011000001
0000011001100110
0000011001100110
1111100110011010
1111100110011010
1111100110011010
0000011001100110
1111100110011011
1111100110011010
1111100111000101
1111100110101101
0000010111111000
1111100111100111
0000011001100110
1111100110011010
0000011001100110
0000011001010010
0000011001100110
0000011001100110
1111100111011101
0000011001100110
0000011001100110
1111100110011010
0000011001100110
0000011001100110
0000010111001101
0000000100110011
0000011001000111
0000011001100110
0000011001100110
1111100110100110
1111100110011010
0000011001100110
0000011001100110
0000011000100111
0000011001100110
0000011001100110
0000011001100110
1111110111100101
0000011001100110
0000011001100110
0000011001100110
1111100110011100
0000011001100110
0000011001100110
0000011001100110
0000011001100110
0000011001100110
0000011001100110
0000011001100110
0000011000110001
1111100110011010
1111100110100010
1111100110110101
0000011001100110
0000011001100110
0000011001100110
0000011001100110
1111100110011010
0000011001100110
0000011001100110
0000010110100110
0000011001100110
1111100110011010
1111100110100010
0000011001100110
0000011001100110
0000011001100110
1111100110011010
0000011001100110
1111100110011010
0000011001100110
0000011001100110
1111100110011010
0000011001100110
1111100110011010
1111100110011010
0000011001100110
0000011001100110
1111100110011010
1111100110011010
1111100110011011
0000011001100110
0000011001100110
0000011001100110
1111110000111001
1111100110011010
0000011001100110
0000011001100110
0000011001100110
1111100110100111
0000011001100110
1111100110011010
0000011001100110
0000011001100110
1111100110011010
0000011001100110
1111101101001111
0000011001100110
0000011001100110
1111100110011010
1111100110011010
1111101001001101
0000011001100110
1111100110011010
0000011001100110
0000011001100110
0000011001100110
0000011001100110
1111100110011010
0000011001100110
1111100110011010
0000011001100110
0000011001100110
1111101100001101
1111100110011010
0000011001100110
1111100110011010
1111100110110011
0000011001100110
1111100110011101
0000011001100110
1111101111111001
0000011001100110
0000011001100110
0000011001100110
1111100110011010
0000011001100110
1111101000100011
0000011001100110
0000011001100110
1111100110011010
1111100110011010
0000011001100110
0000011001100110
0000011001100110
0000011001100110
1111100110111011
1111100110100100
1111110001011110
1111100110100101
0000011001100110
1111100110011010
1111100110011010
1111100110100001
1111100110011010
1111100110011010
0000011001100110
0000011001100110
0000011001100110
1111101101101111
1111100110011010
0000011001100110
1111100110101110
0000011001100110
1111100110011011
0000011001100110
0000011001100110
0000011001100110
1111100110011010
1111100110011010
0000011001100110
0000011001000011
0000011000111011
0000011001100110
0000011001100101
0000011001100110
1111100110011010
0000011001100110
0000011001001100
1111100110011010
0000011001010100
0000011001010001
0000011001010111
1111100110011010
0000011001100110
0000011001100110
1111101001101110
0000011001100110
0000011001100110
0000011001100110
0000011001100110
0000011001100110
0000011001100110
0000011001100110
0000011001100110
0000011001100110
0000011001100110
0000011001011001
1111100110011010
0000011001100110
1111100110011010
1111100110011010
0000011001100110
1111100110011010
0000011001100110
0000011001100110
1111101001000100
0000011001100110
0000011001011110
1111100110011010
1111100110011010
0000011001100110
0000011001100110
1111100110011010
0000011001100110
1111100110011010
1111100110011010
1111100110011010
1111100110011010
0000011001100110
0000011001100110
0000011001100110
0000011001100110
1111100110011010
1111100110011010
1111100111101000
0000011001100110
1111100110011010
0000011001100110
1111100110011010
0000011001100110
1111100110011010
1111100110011010
0000011001100110
0000011001100110
0000011001100110
1111100110011010
1111101000001001
0000011001100110
0000011001100010
0000011001000010
0000011001001001
1111100110011010
1111100110011010
1111100110011010
0000011001100110
0000011000111101
0000011001100110
0000011001100110
0000011001100110
0000011001100110
1111101001111100
1111100110011010
0000011001100110
1111100110011010
0000011001100110
0000011001011010
0000011001100110
0000011001100110
1111100110011010
0000011001100110
1111100110011010
0000011001100110
0000011001100110
1111100110011010
1111100110011010
0000011001100110
0000011001100110
1111100110011010
0000011001100110
0000011001100110
0000011001100110
0000011001100110
0000011001100110
0000011001100110
0000011001100110
1111100110011010
0000011001100100
1111100110011010
1111101100101011
1111100110011010
0000011001100101
1111100110011010
0000011001100110
0000011001100110
1111100110011010
1111100110011010
0000011001100110
1111100110011010
1111100110011010
0000011001100110
0000011001100110
0000011001100110
0000011001100110
0000011001100110
0000011001100110
0000011001100110
1111100110011010
0000011001011011
1111100110011010
0000011001100101
0000011001100011
1111100110011010
0000011001100110
0000011001100110
1111100110011010
1111100110011010
0000011001100110
1111100110011010
1111100110011010
1111100110011010
0000011001100110
1111100110011010
1111100110011010
0000011001100110
1111100110011010
0000011001100110
1111100110011010
0000011001100110
1111100110011010
1111100110011010
1111100110011010
1111100110011010
0000011001100110
1111100110011010
0000011001100101
0000011001100110
0000000010010110
0000010110111100
0000011001100110
1111100110011010
0000011001100110
0000001011101001
0000011001100110
1111100110011010
0000011001100110
0000011001010011
0000011001100110
0000011001100110
0000011001100110
0000011001100110
1111100110011010
1111100110011010
0000011001100110
0000011001100110
0000011001100110
1111100110011010
0000010110000100
0000011001100011
0000011001100110
1111100110011010
0000011001100110
1111100110011010
0000011001100110
1111100110011010
0000011001100110
0000011001100110
0000011001100110
1111100110011010
0000011001100110
0000011001100110
0000010010110100
1111100110011010
0000011001010010
0000011001100110
1111101010110010
0000011001100110
0000011001011010
0000011001100100
0000010001101101
0000011001100110
0000011001100110
0000011001100110
1111100110011010
0000000110000010
1111111100001011
0000011001100110
0000011001100110
1111100110011010
0000011001100110
0000001111011001
1111100110011010
0000011001100110
0000011001100110
1111100110011010
0000011001100110
0000011001100110
1111100110011010
0000011001100110
1111100110011010
1111100110011010
0000011001100110
0000011001100110
0000001010101110
0000011001100110
0000010111101011
1111100110011010
0000011001100110
1111100110011010
1111100110011010
0000011001100101
0000011001100100
0000011001100110
0000011001100110
1111100110011010
1111100110011010
1111100110011010
0000011001100110
0000011001100110
1111100110011010
0000011001100110
0000011001100110
0000011001100110
1111100110011010
1111100110011010
1111100110011010
0000011001100110
0000011001100110
0000011001100110
1111100110011010
0000011001100110
0000011001100110
0000001101000111
1111100110011010
0000011001100110
0000011001100110
0000011001100110
1111100110011010
0000011001100011
1111100110011010
0000011001100110
0000011001100110
0000011001100110
1111100110011010
1111100110011010
0000011001100110
1111100110011010
1111100110011010
1111100110011010
0000011001100110
1111100110011010
1111100110011010
1111100110011010
0000011001100110
0000011001100110
0000011001100101
0000011001100110
1111100110011010
1111100110011010
1111100110011010
1111100110011010
0000011001100110
1111100110011010
0000011001100110
0000011001100100
0000011001100110
0000011001100110
0000011001100110
1111100110011010
0000011001100110
0000011001100100
0000011001100110
1111100110011010
1111101111101001
0000011001100110
1111100110101011
0000011001100110
1111100110011010
0000011001100110
1111100110011010
0000000010110000
1111100111000100
0000011001100110
0000011001100110
1111100110011010
0000011001100110
1111100110011010
0000011001100110
0000000101110011
0000011001100110
1111100110011010
0000011001100110
1111100110011010
0000011001100110
0000011001100110
1111111110011001
1111100110011010
0000011001100110
0000011001100110
0000011001100110
1111100110011010
0000011001100110
1111100110011010
0000001101100110
0000011001100110
0000011001100110
0000001111110101
0000011001100110
0000010100100111
0000011001100110
1111100110011010
0000011001100110
0000011001100110
1111100110011010
0000011001100110
0000011001100110
1111100110011010
0000011001100110
0000011001100100
1111100110011010
0000011001100110
0000011001100110
1111100110011010
0000011001100110
1111100110101001
0000011001100110
1111100110011010
1111100110011010
1111100110011010
0000011001100110
0000011001100110
1111111001100001
0000011001100110
0000011001100110
0000000010111111
0000011001100110
1111100110011010
1111100110011010
0000011001100110
0000011001100110
0000011001100110
0000011001100110
1111100110011010
0000011001100110
1111100110011010
0000011001100110
0000011001100110
0000011001100110
0000011001100110
0000011001100110
0000011001100110
1111100110011010
1111100110011010
1111100110011010
0000011001100110
0000011001100110
0000011001100110
0000011001100110
0000011001100110
0000011001100110
1111100110011010
1111100110011010
0000011001100110
0000011001100110
0000011001100110
1111100110011010
0000011001100110
0000010110001011
0000011001011111
0000011001100110
1111100110011011
0000011001100110
0000011001100110
0000011001100110
1111100110011100
1111100110011101
1111100110100000
0000011001100110
1111100110011011
0000011001100110
0000011001100110
1111100110011010
1111100110011010
1111100110011010
0000011001100110
0000010110001001
1111100110011010
1111100110011010
0000011001100110
1111100110011010
0000011001100110
1111100110011010
0000011001100110
0000010011011111
1111100110011010
0000011001100110
0000011001100110
1111100110011010
0000011001100110
1111100110011010
0000011001100110
0000011001100110
1111100110011010
0000011001100110
0000011001100110
0000011001100110
0000011001100110
0000011001100110
1111100110011010
0000011001100110
0000011001100110
0000011001100110
0000011001100110
1111100110011010
1111100110011100
0000011000010001
1111101010010000
1111100110011111
0000011001100110
1111100110100001
0000011001100110
0000011001100110
0000011001100110
0000011001100110
0000011001100110
0000011001100110
1111101001000101
1111100110011010
0000011001100110
0000011001100110
0000011001100110
0000010110111111
1111100110011010
0000010111001111
0000011001100110
1111100110011110
1111100110011010
0000011001100110
0000011001100110
1111100110011010
1111100110011010
1111100110011010
1111100110101000
0000011000110000
0000011001100110
1111100110011010
1111100110011010
0000011001100110
0000011001100110
0000011001100110
0000011001100110
1111100110011010
0000011000101000
1111100110011111
0000011001100110
0000011001100110
0000010101111000
1111100110011010
0000011001100110
1111100110011010
0000011001100110
0000011001010000
1111100110011010
1111100110011010
0000011001011011
0000011001100110
1111100110011010
1111100110011010
1111100110011010
1111100110011010
1111100110011101
1111100110011010
0000011001100110
1111100110011010
0000011001100110
0000010111101101
1111100110011011
0000011001100110
0000011001010010
0000011001100110
0000011001100110
0000011001100110
1111100110100111
0000011001100110
0000011001100110
1111100110011010
0000011001100110
0000011001100110
0000011001100110
0000011001010100
1111100110011010
0000011001100110
1111100110011010
1111100110011010
0000010111100111
0000011001010010
0000011001100110
0000011001100110
0000011001100110
0000011001100110
0000011001100110
1111100110011010
0000011001100110
0000011001100110
0000011001100110
1111100110011100
0000011001100110
0000011000100010
0000011001100110
0000011001100110
0000011000010101
1111100110011100
1111100111110101
0000011001100110
1111100110011010
0000011001100110
0000011001100110
1111100110011010
1111100110100000
1111111011011100
0000010111101011
0000011001100110
1111100110011010
1111100110011101
0000011001100110
0000011001100110
0000011001100110
1111100110011010
0000011001100110
1111100110011110
0000011001100110
0000011001100110
1111100110011010
0000011001100110
1111100110011010
0000011001010111
0000011001100110
1111100110011011
1111100110011010
1111100110011011
0000011001011011
1111100110011010
1111100110100010
0000011001100110
1111101011010000
1111100110011101
0000010110100111
0000010111010111
0000011001100110
1111100110011110
0000000001100101
0000011001010001
0000011001100110
0000011000000010
1111100110011100
1111100110011010
0000011001100110
0000011001100110
0000011001100110
1111101100100011
1111100110011010
0000011001100110
0000010111110001
1111100110111000
0000011001100110
1111100110011101
1111100110011110
0000011001100110
1111100110011010
0000011001100110
1111100110011011
0000011001100110
0000011001100110
1111100110011010
1111100110011010
0000011001100110
1111100110011010
0000011001001001
0000011001100110
1111100110011010
0000011001100110
0000011000011111
0000011001100110
0000011001100110
0000011001100110
1111100110011010
1111100110100111
0000010000101011
1111100110101011
0000011001100110
1111100110011010
1111100110011010
0000011001100110
0000011001100110
0000011001100110
0000011001100110
1111100110011110
0000011001100110
1111100110011011
0000011001100110
0000011001000101
1111100110011010
1111100110011010
0000011001100110
1111100110011101
1111100110100000
0000011001100110
0000011001100110
0000011001100110
0000011000001110
1111100110011110
0000011001100110
0000011001000001
0000011001100110
0000011001100110
1111110110010110
0000011001100110
0000011001100110
1111100110011010
1111100110011010
1111101000101010
0000001011110100
0000011001100110
0000011001100110
1111100110011010
1111100110011010
0000011001100110
1111100110011010
1111100110011010
0000011001100110
1111100110011010
1111100110011010
1111100110011010
0000011001100110
0000011001100110
1111100110011010
0000011001100110
1111100110011010
1111110011101100
0000011001100110
1111100110011010
0000011001100110
0000011001100110
0000011001100110
1111100110011010
1111100110011010
1111110000110011
0000011001100110
1111100111111000
0000011001100110
0000010101011100
0000011001100110
1111100110011010
0000011001100110
1111100110101011
1111100110011010
0000001010000110
1111100110011010
0000011001100110
0000011001100110
0000011001100110
0000011001100110
1111100110011010
1111100110011010
0000011001100110
0000011001100110
0000011001100110
1111100111011000
1111100110011010
0000011001100110
0000011001100110
0000011001100110
1111110011001111
1111100110110111
0000011001100110
0000011001100110
1111100110011010
0000011001100110
0000011001100110
1111100110011010
1111100110011010
0000011001100110
0000011001100110
0000011001100110
1111100110011010
0000011001100110
0000011001100110
0000011001100110
1111100110011010
1111100110011010
0000011001100110
1111100110011010
0000011001100110
0000011001100110
0000011001100110
1111100110011010
0000011001100110
0000011001100110
1111100110011010
0000011001100110
1111100110011010
0000011001100110
0000001110010001
1111100110011010
0000011001100110
0000011001100110
1111100110011010
0000011001100110
0000011001100110
1111100111000100
0000011001100110
1111100110011010
1111100110011010
1111100110011010
0000011001100110
1111100110011010
0000011001100110
1111101001000000
1111100110011010
1111100110011010
0000011001100110
1111100110011101
0000011001100110
0000011001100110
0000011001100110
1111100110011010
0000011001100110
1111100110011010
0000011001100110
0000011001100110
1111100110110100
1111100110011010
0000011001100110
1111100110011010
0000011001100110
1111100110011010
1111100110011010
1111100110011010
1111100110011010
0000011001100110
0000011001100110
0000011001100110
1111100110011010
0000011001100110
0000011001100101
0000011001100110
1111100110011010
0000011001100110
0000011001100110
1111100110011010
0000011001100101
0000011001100110
0000011000010010
0000011001100100
0000011001100110
1111100110011010
1111100110011010
0000011001100110
1111100110011010
1111100110011010
1111100110011010
0000011001100110
1111100110011010
1111100110011010
0000011001100110
0000010111100001
0000011001100110
1111110101000101
1111100110011010
1111100110011010
0000001101110000
0000011001100011
1111100110011010
0000011001100110
1111100110011010
0000011001100101
0000001010101011
0000011001100110
0000011001100110
0000011001100110
1111100110011010
0000011001100110
1111100110011010
0000011001100110
1111100110011010
1111100110011010
0000011001100110
0000011001100110
0000011001100110
0000011001100110
1111100110011010
1111100110011010
0000011001100011
0000011001100110
0000011001100110
1111101110010001
1111100110011010
0000011001100010
0000011001100110
0000011001100110
0000011001010011
1111101010110000
1111100110011010
0000011001100110
1111100110011010
0000011001100110
0000011001100110
1111101010110010
1111100110011010
0000011001100110
0000011001100110
0000011001100010
1111100110011010
0000001010000100
0000011001100110
1111100110011010
0000011001100110
0000011001010100
0000011001100100
1111100110011010
0000011001100110
0000011001100110
0000011001100110
0000011001100100
0000011001100110
0000011001100110
0000000110100100
0000011001100110
1111100110011010
0000011001100110
0000011001100110
1111100110011010
0000011001100110
0000011001100110
1111100110011010
0000011001100110
0000011001100110
1111100110011010
0000011001100110
1111100110011010
1111100110011010
0000011001100110
0000011001100110
0000011001100110
0000011001100101
0000011001100011
1111100110011010
0000011001100110
1111100110011010
1111100110011010
0000011001100110
0000011001100110
0000011001100110
0000011001100110
1111100110011010
1111110110101000
1111100110101000
0000011001100110
1111101000010001
1111100110011010
1111101001110010
1111101011100110
0000011001100110
1111100110011010
1111100110011010
1111100110011010
0000001010101001
0000011001100110
0000011001100110
0000011001100010
0000011001100110
0000011001100110
1111110110110010
1111100110011010
0000011001100110
0000011001100110
0000011001100100
1111100110011010
0000011001100110
0000011001010101
1111100110011010
0000011001100110
0000011001100110
0000011001100001
1111100110011010
0000011001100110
1111100110011010
1111100110011010
1111100110011010
0000011001100110
1111100110011010
0000011001100110
0000011001100110
1111100110011010
0000001100011000
1111100110011010
0000011001100110
1111100110011010
1111100110011010
1111100110011010
0000011001100110
1111100110011010
0000011001100110
1111100110011010
0000011001100110
1111100110011010
1111100110011010
0000011001100110
1111100110011010
1111100110011010
0000011001100110
1111101101011000
0000011001100110
0000011001100110
1111100110011010
0000011001100110
0000011001100110
0000011001100110
0000011001100110
0000011001100010
1111100110011010
0000011001100110
0000011001100110
0000011001100110
0000011001100110
1111100110011010
0000011001100110
0000000111101000
0000001001000111
0000011001100110
0000011001100110
0000011000010000
1111100110011010
0000011001100110
0000011001100110
0000011001100110
0000011001100110
0000011001100110
0000011001100110
1111100110011010
1111100110011010
0000011001100110
0000011001100110
1111110110111010
1111100110011010
1111100110011010
0000011001100110
1111100110011010
0000011001100110
0000011001100110
0000011001100110
1111100110011010
1111100110011010
1111100110011010
0000011001100110
0000011001100110
1111100110011010
0000010110111111
1111100110011010
1111100110011010
0000011001100110
0000011001100110
1111100110011010
1111100110011010
0000011001100110
1111100110011010
0000011001100110
0000011001100110
1111100110011010
1111100110011010
0000011001100110
1111110111001001
0000011001100110
1111100110011010
1111100110011010
1111100110011010
1111100110011010
0000011001100110
1111100110011010
1111100110011010
1111100110011010
1111100110011010
1111100110011100
1111100110011010
0000011001100110
1111100110011010
0000011001100110
1111100110011010
0000000110111101
0000011001100110
0000011001100110
0000011001100110
1111100110011010
0000011001100110
0000011001100110
0000011001100110
0000011001100110
1111100110011010
0000011001100110
0000011001100110
0000011001100110
1111100110011010
1111100110011010
0000011001100110
1111100110011010
0000011001100110
0000011001100110
1111100110011010
0000011001100110
1111100110011010
1111100110011010
1111100110011010
0000011001100110
1111100110011010
0000011001100110
0000011001100110
0000011001100110
0000011001100110
0000011001100110
1111100110011111
1111100110011010
0000011001100110
1111100110011010
0000011001100110
0000011001100110
0000011001100110
0000011001100110
1111100110111111
0000011001100110
1111100110011010
0000011001100110
0000011001100110
0000011001100110
1111100110011011
0000011001100110
1111100110011010
1111100110011010
1111100110011010
0000011001100110
1111100110011010
0000011001100110
0000011001100110
0000010101110000
1111100110011010
0000011001100110
1111100110011010
0000011001100110
0000011001100110
1111100111100001
1111100110011010
0000011001100110
0000011001100110
0000011001100110
0000011001100110
1111110111001000
1111100110011010
0000010001011111
0000011001100110
0000011001100110
0000011001100110
1111100110011010
0000011001100110
1111100110111000
0000011001100110
0000011001100110
0000011001100110
1111100110011010
0000011001100110
0000011001100110
0000011001100110
1111100110011010
0000000101011010
1111100110011010
0000011001100110
0000011001100110
0000011001100110
0000011001010001
0000011001100110
1111100110011010
1111100110011101
0000011001100110
1111100110100001
0000011001100110
1111100110011010
1111100110011010
0000011001100110
0000011001100110
1111100110011010
0000011001100110
1111100110011010
0000011001100110
1111100110100100
1111100110011010
0000011001100110
1111100110011010
0000011001100110
0000011001100110
1111100110011010
0000011001100110
0000001101101101
0000011001100110
1111100110111111
0000011001100110
1111100110011010
0000011001100110
0000011001100110
1111100110011010
1111100110011010
0000011001100110
1111100110011010
0000011001100110
0000011001100110
0000011001100110
0000011001100110
0000011001100110
0000011001100110
0000011001100110
0000011001100110
1111100110011010
0000011001100110
0000011001100110
0000011001100110
0000011001100110
1111100110101110
1111100110011010
0000011001100110
1111100110011010
1111100110011010
0000011001001111
0000011001100110
1111100110011010
1111100110011010
0000011001100110
0000011001100110
0000011001100010
0000011001100110
0000011001100010
1111100110011010
0000011001100110
1111100110011010
0000011001011001
1111100110011010
0000011001100110
0000011001100110
0000011001100110
0000011001010110
0000011001100110
1111100110011010
1111100110011010
0000011001100110
0000011001100110
0000011001100110
1111100110011010
0000011001100110
0000011001100110
0000011001100110
1111100110011010
0000011001100110
1111100110011010
0000011001100110
1111100110011010
0000011001100110
0000011001100110
1111100110011010
1111100110011010
0000011001100110
1111100110011010
0000011001100110
1111100110011010
1111100110011010
0000011001100110
0000000101111101
1111100110011010
1111100110011010
0000001100101100
0000011001011111
0000011001100110
1111100110011010
1111100110011010
1111100110011010
1111100110011010
0000011001100110
0000011001100110
0000011001100110
0000011001100110
0000011001100110
0000011001011010
0000011001100110
1111100110011010
0000011001011110
1111100110110000
1111100110011010
1111100110011010
1111110010110110
0000011001100110
0000011001100110
1111100111111111
1111100110011010
0000011000101010
0000001000001011
0000011001100110
0000011001100101
0000011001100001
0000011001100110
0000011001100110
0000011001011111
1111100110011010
0000011001100110
0000011001100110
0000011001100110
0000011001100110
0000011001100110
1111100110011010
1111111110101111
0000011001100110
1111100110011010
1111100110011010
1111100110110011
1111100110011010
0000011001100110
0000011001100110
0000011001100110
1111100110110000
1111100110011010
0000011001100110
0000011001100110
1111100110100110
0000001100011000
0000011001100110
0000011001100110
0000011001100110
0000011001100110
0000011001100100
1111100110011010
0000011001100110
0000011001100110
0000011001100110
0000011001100110
0000011001100110
0000011001100110
0000011001011010
0000011001100110
1111100110011010
0000011001100110
0000011001100110
1111100110011010
0000010100011100
1111100110011010
1111100110011010
1111100110011010
0000011001100110
1111100110011010
1111110011101010
0000011001100110
0000011001011000
1111110101100111
1111100110011010
0000011001100010
0000011001100110
0000011001011111
0000011001100110
0000011001100110
0000011001100101
1111100111000011
1111100110011010
1111100110011010
0000011001100110
1111100110011010
0000011001011111
0000011001100110
0000011001010101
0000011000101100
0000010111000001
0000011001100110
1111100110011010
0000011001100110
0000010111100110
1111100110011010
0000011001100100
0000011001100110
1111100110011010
1111100110011010
0000011001100101
1111100110011010
1111100110011010
1111100110011010
0000011001100110
1111100110011010
0000011001100110
1111100110011010
0000011001100110
0000011001100110
1111100110011010
0000011001100110
1111100110011010
1111100110011010
1111100110011010
0000011001100110
1111100110011010
0000010010110010
0000011001100110
1111100110011010
0000011001100101
0000011001100110
1111100110011010
0000011001100110
0000011001100110
0000011001100110
0000011001100110
0000010110001011
0000011001100010
1111100110100100
0000010100000010
0000011001100110
0000011001100110
0000011000001010
1111100110011010
0000011001100110
0000011001100001
0000011001100110
0000000000001011
0000011001100110
0000011001100110
0000010111001111
0000011001100000
1111100110011010
1111111111000100
1111101001000011
1111100110011010
1111100110011010
0000011001100100
0000010110011001
0000011001100110
0000011001100110
0000011001100110
1111100110011010
0000011001100110
1111100110011010
0000011001100011
1111100111010010
1111100110011010
0000000000001000
0000011001100110
1111100110011010
0000011001100110
0000011001011110
1111100110011010
0000011001100101
1111100111000101
0000011001100110
1111101000000110
1111100110011010
1111100110011010
1111100110011010
0000011001100110
0000010101010000
1111101110111100
1111100110011010
0000011001100110
1111100110011010
0000011001100001
1111100110011010
1111100110011010
1111110101010100
0000011000100100
1111100110011010
0000011001100110
1111100110011010
0000011001100110
0000011001100110
0000011001100110
1111100110011010
0000011001100110
0000011001100110
1111100111101000
0000011001100100
1111100110011010
0000011001100110
0000011001100110
0000011001100110
0000011001100000
1111100110011010
0000011001011101
0000011001100110
1111110100001101
1111100110011010
1111100110011010
0000011001100110
1111100110011010
0000011001100110
0000011001100110
0000011001100110
0000011001100110
1111100110011010
0000011001100110
1111100110011010
0000011001100110
1111100110011010
0000011001100110
0000011001100110
0000011001100110
0000011001100110
0000011001100110
1111100110011010
1111110000100110
0000011001100110
1111100110101100
0000011001100110
1111100110011010
0000011001100110
0000011001100110
0000011001100110
1111100110011010
1111100110011010
1111100110110100
0000011001100110
0000011001100110
0000011001100110
0000011001100110
1111100110011010
1111100110011010
0000011001100110
1111100110100110
1111100110011010
0000011001100110
1111100110011010
0000011001100110
0000011001100110
1111100110011010
1111100110011010
1111100110011010
0000011001100110
0000011001100110
1111100110011010
1111100110011010
0000011001100110
0000011001100110
0000011001100110
0000011001100110
1111100110101100
1111110101011011
0000011001100110
0000011001100110
0000011001100110
1111100110011010
0000011001100110
1111100110011010
1111100110011010
1111100110011010
0000011001100110
1111100110011010
0000011001100110
0000011001100110
1111100111001010
0000011001100110
0000010101011110
1111100110011010
0000011001100110
0000011001100110
0000011001100110
0000011001100110
0000011001100110
1111100110011010
0000011001100110
0000011001100110
0000011001100110
1111100110011010
1111100110111110
1111100110011010
1111100110011010
0000011001100110
1111100110011010
1111100110011010
1111100110011010
0000011001100110
0000011001100110
0000010111111110
0000011001100110
1111100111100010
0000011001100110
0000011001100110
1111100110011010
0000011001100110
1111100110011010
0000011001100110
0000011001100110
0000011001100110
1111100110011010
0000011001100110
0000000111001001
0000011000110011
0000011001100110
0000011001100110
1111100110011010
0000011001100110
0000011001100110
0000011001100110
0000011001100110
1111100110011010
0000011001100110
0000011001100110
1111100110011010
1111100110100110
0000011001100110
0000011001100110
1111100110011010
0000011001100110
1111100110011110
1111100110011010
0000011001100110
1111100110011010
1111100110100010
1111100110011010
0000011001100110
1111100110011010
1111100110011010
0000011001100110
0000011001100110
0000011001100110
0000011001100110
1111100110011010
1111100110011010
0000011001100110
1111100110011010
0000011001100110
0000011001100110
0000011001100110
0000011001100110
0000011001100110
0000011001100110
0000011001100110
1111100110011010
1111100110011010
0000011001100110
0000011001100110
0000011001100110
1111101000001101
0000011001100110
0000011001100110
0000011001100110
1111100110011010
1111100110011010
0000011001100110
0000011001100110
0000011001100110
1111100110011010
0000011001100110
1111100111011101
1111100110011010
0000011001100110
1111100110011010
1111100110011010
1111100110011010
0000011001100110
1111100110111110
1111100110011010
0000011001100110
1111100110011010
1111110100110101
0000011001100110
0000011001100110
1111100110011010
0000011001100110
0000011001100110
0000011001100101
0000011001100110
0000011001100110
1111100110011010
0000010111001111
0000011001100110
0000011001100110
0000011001100110
1111100110011010
0000011001100110
0000011001100110
1111101110001110
1111100110011010
0000011001100110
0000011001100110
0000011001100110
0000011001100110
1111100111011100
1111100110011010
1111101000111001
1111100110011010
1111100110011010
0000011001100110
0000011001100110
0000011001100110
0000011001100110
1111100110011010
1111100110011010
0000011001100110
0000011001100110
0000011001100110
1111100110011010
1111100110011010
0000011001100110
0000011001100110
1111100110011010
0000011001100110
1111100110011010
1111100110011010
0000011001100110
1111100111001000
0000011001100110
1111100110011010
1111100110011010
0000011001100110
1111100110011010
0000011001100110
0000010100010011
0000011001100110
1111100110011010
0000011001100110
1111100110011010
0000011001100110
1111100110011010
1111100111011100
0000011001100110
0000011001100110
1111100110011010
0000011001100110
0000011001100110
0000011001100110
0000011001100110
0000011001100110
0000011001100110
0000011001100110
1111100110011010
1111100110011010
1111100111011100
1111100110011010
1111101000010010
0000011001100110
1111100110011010
1111100110011010
0000011001100110
1111101111100100
0000011001100110
1111100110011010
0000011001100110
1111100110011010
0000011001100110
0000011001100110
1111100110011010
0000011001100110
1111100110011010
0000011001100110
0000011001100110
0000011001100110
1111100110011010
1111100110011010
0000011001100110
1111100110011010
1111100110011010
1111100110011010
0000011001100110
1111100110011010
1111100110011010
0000011001100110
0000011001100110
0000011001100110
1111100110011010
0000011001100110
1111100110011010
1111100110011010
1111100110011010
0000011001100110
0000011001100110
1111100110011010
0000011001100110
0000011001100110
0000011001100110
1111100110011010
0000011001100110
1111100110011010
0000011001100110
0000011001100110
0000011001100110
0000011001100110
1111110000100001
0000011001100110
0000011001100110
0000011001100110
1111101011100110
0000011001100110
1111100110111000
1111100110011010
0000011001100110
0000011001100110
0000011001100110
0000011001100110
1111100110011010
1111100110011010
1111100110101000
1111101011000000
0000000101100001
1111100110110101
0000011001100110
1111100110011010
0000011001100110
0000011001100110
0000011001100110
0000011001100110
0000011001100110
0000011001100110
1111100110011010
1111100110011010
0000011001100110
0000011001100110
1111101100111110
0000011001100110
0000011001100110
0000011001100110
0000011001100110
0000011001100110
0000011001100110
0000011001100110
0000011001100110
1111100110011010
1111100110011010
0000011001100110
1111101010110110
1111100110011010
1111100110011010
1111100110011010
1111100110011010
0000011001100110
0000011001100110
0000011001100110
0000011001100110
1111100110100001
1111110100011010
1111111010000100
0000011001100110
1111100110011010
0000011001100110
0000011001100110
1111101010111000
0000011001100110
0000011001100110
1111100110011010
0000011001100110
1111100110011010
0000011001100110
1111100110101101
1111100110011010
0000011001100110
0000011001100110
1111100110100010
0000011001100110
1111101000010110
1111100110011010
0000011001100110
0000011001100110
1111101000001101
0000011001100110
0000010101110011
0000011001100110
0000011001100110
1111100110011010
0000011001100110
0000011001100110
0000011001100110
0000011001100110
0000011001100110
0000011001100110
0000011001100110
1111100110011010
0000011001100110
0000011001100110
0000011001100110
0000011001011110
0000011001011101
0000011001100110
0000011001100110
0000011001100110
1111100110011010
0000011001100110
0000011001100110
1111100110011010
0000011001100110
0000011001100110
0000011001100110
1111100110011010
0000011001100110
0000001001011111
1111100110011010
0000011001100110
0000011001100110
0000011001100110
0000011001100110
0000011001100110
0000011001100110
0000011001100110
0000011001100110
0000011001100110
0000011001100110
0000011001100110
1111100110011010
0000011001100110
1111100110011010
1111100110011010
0000011001100110
1111100110011010
0000011001100110
0000011001100110
0000010101000010
1111100111000011
0000011001100110
1111100110011010
1111100110011010
0000011001100110
0000011001100110
1111100110011010
0000011001100110
1111100110011010
1111100110011010
1111100110011010
1111100110011010
0000011001100110
0000011001100110
0000011001100110
1111101001111110
1111100110011010
1111100110011010
0000011001011110
0000011001100110
1111100110011010
0000011001100110
1111100110011010
1111110010001110
1111100110011010
1111101010100111
0000011001100110
0000011001100110
0000011001100110
1111100110011010
0000011001100110
0000011001100110
0000011001100110
0000011001011111
0000011001100110
1111100110011010
1111100110011010
1111100110011010
0000011001100110
0000011001001011
0000011001100110
0000011001100110
0000011001100110
0000011001100110
1111101100010001
1111100110011010
0000011001100110
1111100110011010
0000011001100110
0000011001100110
0000011001100110
0000011001100110
1111100110011010
0000011001100110
1111100110011010
0000011001100110
0000011001100110
1111100110011010
1111100110011010
0000011001100110
0000011001100110
1111100110011010
0000011001100110
0000011001100110
0000011001100110
0000011001100110
0000011001100110
0000011001100110
0000011001100110
1111100110011010
0000011001100110
1111100110011010
1111100110011010
1111100110011010
0000011001100110
1111100110011010
0000011001100110
0000011001100110
1111100110011010
1111100110011010
0000011001100110
1111100110011010
1111100110011010
0000011001100110
0000011001100110
0000011001100110
0000011001100110
1111100111001011
0000011001100110
0000011001100110
1111100110011010
0000011001100110
0000011001100010
0000011001100110
1111100110011010
0000011001100110
0000011001100110
1111100110011010
1111100110011010
0000011001100110
1111100110011010
0000011001100110
0000011001100110
0000011001100110
0000011001100110
0000011001100110
1111100110011010
1111100110011010
0000011001100110
1111100110011010
0000011001100110
0000011001100110
0000011001100110
0000011001100110
1111100110011010
0000011001100110
0000011001100110
1111100110011010
0000011001100110
1111100110011010
0000011001100110
1111100110011010
1111100110011010
1111100110011010
1111100110011010
0000011001100110
0000011001100110
0000011001100110
0000011001100110
0000011001100110
1111100110011010
0000011001100110
1111100110011010
0000011001100110
1111100110011010
1111100110011010
1111100110011010
0000011001100110
0000011001100110
0000011001100110
0000011001100110
1111100110011010
1111100110011010
1111111100111101
0000011001000101
0000010000110011
0000011001100110
1111100110011010
0000011001100110
0000011001100110
0000011001100110
0000011001100110
0000010110011100
1111100110011010
0000011001100110
0000011001100110
0000011001100110
1111100110011010
0000001010101001
0000011001100110
0000011001100110
0000011001100110
0000011001100110
1111100110011010
0000011001100110
1111100110011010
0000011001100110
1111101000100011
1111100110011010
0000011001100110
1111100110011010
1111100110011010
1111110101111101
1111100110011010
1111100110011010
0000011001100110
1111100111010100
1111101011110100
0000011001100110
1111100110011010
0000011001100011
1111100110011010
0000011001100110
0000011001100110
0000011001100110
0000011000111100
0000000001100001
0000011001100110
0000011001100110
0000000010100001
0000011001100110
1111100110011010
0000011001100110
1111100110011010
1111100110011010
0000011001100110
1111100110111010
0000011001100110
0000011001100110
0000011000100110
0000010011110001
0000011001100110
0000011001100110
0000011000111111
0000011001100110
1111100110011010
0000011001100110
0000011001100110
0000011001100110
0000011001010100
1111100110011010
1111100110100101
0000011001100110
0000011001100110
1111100110011010
1111101000011111
0000010011001000
0000011001100110
1111111111110011
0000011001100110
0000011001100110
0000011001100110
1111100110011010
0000011001100110
0000011001100110
1111100110011010
0000011001100110
0000011001100110
1111100110011100
0000011001100110
0000011001100110
0000011001100110
0000010111001001
0000011001100110
0000011001100110
1111100110011010
0000011001100110
1111101001111111
0000011001100110
0000011001100110
0000011001100110
1111100110011010
1111100110011010
0000011001100110
1111100110011010
0000011001100110
1111100110011010
0000011001100110
1111101011011001
0000011001100110
1111100110011010
0000011001100110
1111100110011010
0000011001100110
1111100110011010
0000011001100110
0000011001100110
1111100110011010
1111100110011010
0000011001100110
1111100110011010
0000011001100110
0000011001100110
1111100110011010
1111100110011010
0000011001100110
0000011001100110
0000011001100110
1111100110011010
1111100110011010
1111100110011010
1111100110011010
0000011001100110
0000011001100110
1111100110011101
0000011001100110
0000011001100110
0000010110010100
0000011001100110
0000011001100110
0000011001100110
1111100110011010
1111100110011010
0000011001100110
0000011001100110
1111100110011010
0000010101101100
1111100110011010
0000011001100110
0000011001100110
0000011001100110
1111100110011010
1111110000010000
1111100110011010
0000011001100110
1111100110100100
1111100110011010
0000011001100110
1111100110011010
0000011001100110
1111100110011010
0000011001100110
0000011001100110
0000011001100110
1111100111010101
0000011001100110
1111100110011010
1111100110011010
0000011001100110
1111100110011010
0000011001100110
0000011001100110
1111100110011010
0000011001100110
0000011000011100
1111100110011010
0000011001100110
0000011001100110
1111100110011010
0000011001100110
0000011001100110
1111100110011010
1111100110011010
1111100110011010
1111111010101110
0000011001100110
0000011001100110
0000011001100110
0000011001100110
0000011001100110
0000011001100110
0000011001100110
0000011001100110
1111100110011010
0000011001100110
0000011001100110
0000011001100110
0000011001100110
0000011001100110
1111100111101100
1111100110100100
0000011001100110
1111100110011010
0000011001100110
0000011001100110
1111100110011010
1111100110011010
1111100110011010
0000011001100110
0000011001100110
0000011001100110
1111100110011010
0000011000111111
0000011001100110
0000011001100110
0000011001100110
0000011001100110
0000011001100110
0000011001100110
0000011001100110
1111100110011010
0000011001100110
0000011001100110
0000011001100110
1111100110011010
0000011001100110
0000011001100110
1111100110011010
1111100111111011
0000011001100110
0000011001100110
0000010101010000
1111100110011010
0000011001100110
1111100110011010
0000011001100110
1111100110011010
0000011001100110
0000011001100110
0000011001100110
0000011001100110
1111100110011010
1111100110011010
1111100110011010
0000011001100110
1111100110011010
0000011001100110
0000011001100110
0000011001100110
1111100110011010
0000011001100110
0000011001100110
0000011001100110
1111100110011010
0000011001100110
1111100110011010
1111100110011010
0000011001100110
0000011001100110
1111111010101101
0000011001100110
0000011001100110
1111100110011010
0000011001100110
0000011001000000
0000011001100110
0000011001100110
0000011001100110
0000011001100110
0000011001100110
1111100110011010
0000011001100110
1111100110011010
0000011001100110
0000011001100110
1111100110011010
1111100110011010
0000011001100110
1111100110011010
0000011001100110
1111100110011010
0000011001100110
1111100110011010
0000011001100110
0000011001100110
1111100110011010
0000011001100110
0000011001100110
0000011001100110
0000011001100110
0000011001100110
0000011001100110
0000011001100110
0000011000111100
1111101000011000
0000011001100110
0000011001100110
0000011001100110
1111100110011010
0000011001100110
1111100110011010
0000011001100110
1111101001001100
1111100110011010
1111100110011010
0000011001100110
1111100110011010
0000011001100110
1111100110011010
0000011001100110
0000011001100110
1111100110011010
0000011001001111
0000011001100110
1111100110011010
0000011001100110
0000011001100110
1111100110011010
1111100110011010
0000011001100110
0000011001100110
0000011001100110
0000011001100110
1111100110011010
0000011001100110
0000011001100110
0000011001100110
0000011001100110
1111100110011010
0000011001100110
0000011001100110
0000011001100110
0000011001100110
1111100110011010
0000011001100110
1111100110011010
0000011001100110
0000011001100110
0000011001100110
1111100110011010
0000011001100110
0000011001100110
0000011001100110
0000011001100110
0000011001100110
0000011001100110
0000011001100110
0000011001100110
1111100110011010
0000011001100110
0000011001100110
0000011001100110
0000001111100011
0000011001100110
1111101001110000
1111100110011010
1111100110011100
1111100110011010
0000011001100110
0000011001000000
1111100110011010
0000011001100110
1111100110011010
0000011001100110
0000011000101010
0000011001100110
0000011001100110
0000011001100110
0000011001100110
1111100110011010
1111100110011010
0000010110011101
0000011001100110
1111100110011010
0000011001100110
0000011001100110
0000011001100110
1111100110011010
0000011001100110
0000011001100110
0000011001100110
1111100110011010
1111100110111001
1111100110011010
1111100110011010
0000011001100110
0000011001100110
0000000110000100
0000011001100110
0000011001100110
1111100110011010
0000011001100110
1111101110001100
0000011001100110
0000011001100110
0000011001100110
0000011001100110
0000011001100110
1111100110011010
0000011001100110
1111100110011010
0000011001100110
1111101001001010
1111100110011010
1111100110011010
0000011001100110
1111100110011010
0000011001100110
1111100110011010
0000011001100110
0000011001100110
0000011001100110
0000011001100110
1111100110011010
0000011001100110
0000011001100110
1111100110011010
0000011001100110
0000011001100110
1111110110111100
0000011001100110
0000011001100110
1111100110011010
0000011001100110
0000011001100110
0000011001100110
0000001000001010
0000011001100110
1111100110011010
0000011001100110
1111101011100111
1111100110011010
1111100110011010
0000011001100110
1111100110011010
0000011001100110
1111100110011010
0000011001100110
0000011001100110
1111100110011010
0000011001100110
0000011001100110
1111100110011010
0000011001100110
0000011001100110
1111100110011010
1111100110011010
0000011001100110
1111110001100011
0000011001100110
0000011001100110
1111100110011010
0000011001100110
0000011001100110
0000011001100110
0000011001100110
1111100110011010
0000011001100110
0000011001100110
0000011001100110
0000011001100110
1111100110011010
0000011001100110
1111100110011010
1111100110011100
0000011001100110
0000011001100110
0000011001100110
0000011001100110
1111100110011111
0000011001100110
0000011001100110
1111100110011010
0000011001100110
0000011001100110
0000011001100110
1111100110011101
0000011001100110
1111100110011101
0000010110000010
0000011001100110
0000011001100110
0000011001100110
0000011001100110
0000011001100110
1111110101010110
0000011001100110
0000011001100110
0000011001100110
1111100110011010
0000011001100110
1111100110011010
0000011001100110
1111100110011010
1111100110011010
0000011001100110
1111100110011100
0000011001100110
0000011001100110
0000011001100110
1111100110011010
0000011001100110
0000011000100010
1111100110011010
0000011001100110
0000011001100110
1111100110011010
0000011001100110
1111100110011010
1111100110011010
1111100110011010
1111100110011111
0000011001100110
0000001101010100
0000011001100110
1111101010101001
1111100110011010
1111100110011101
0000011001100110
0000011001100110
1111100110011010
0000011001100110
1111100110011011
0000011001100110
1111100110011011
1111100110011010
0000011001100110
0000011001100110
0000011001100110
0000011000111001
0000010000010011
0000011001100110
0000011001100110
0000011001100110
0000011001100110
0000001000100110
1111100110011110
1111100110011010
0000011001100110
1111100110011010
0000011001100110
0000011001100110
0000011001100110
0000011001100110
1111101001000001
1111100110011010
0000011001100110
1111100110011010
0000011001100110
0000011001100110
0000011001100110
0000011001100110
1111100110011010
0000011001100110
0000011001100110
0000011001100110
0000011001100110
1111100110011010
1111111111010011
0000011001100110
0000011001100110
1111100110011010
0000011001100110
0000011001100110
0000011001100110
0000011001100110
0000011001100110
0000011001100110
0000011001100110
1111100110011010
0000011001100110
1111100110011101
1111100110011010
1111100110011010
0000011001100110
1111100110011010
0000011001100110
0000011001100110
0000011001100110
0000011001100110
1111100111000110
1111100110011010
0000000110111000
0000011001100110
0000011001100110
0000011001100110
1111100110100001
0000011001100110
0000011001100110
0000011001100110
1111100110011010
0000011001100110
1111100110011010
0000011001100110
0000011001100110
1111100110011010
0000011001100110
0000011001100110
0000011001100110
0000011001010101
0000011001100110
1111100110011010
1111100110011010
1111100110011010
0000011001100110
1111100110011010
0000011001100110
0000011001100110
1111100110011010
0000011001100110
1111100110011010
0000011001100110
1111100110011010
1111100110011010
0000011001000010
0000011001100110
1111100110011010
0000011001100110
1111100110011010
0000011001100110
1111100110011010
1111100110011010
0000011001100110
0000011001100110
1111100110011010
0000011001100110
1111100110011010
0000011001100110
0000011001100110
1111100110011010
0000011001100110
0000011001100110
0000011001100110
1111101111100100
0000011001100110
1111100110011010
0000011001100110
0000011001100110
0000011001100110
0000011001100110
1111100110011010
0000011001100110
0000011001100110
1111110000100011
1111100110011010
0000011001100110
1111100110011010
0000011001100110
0000011001100110
0000011001100110
0000011001100110
0000011001100110
0000011001100110
0000011001100110
1111100110011010
0000011001100110
0000011001100110
0000011001100110
1111110100100100
1111100110011010
1111100110011010
0000011001100110
1111100110011010
1111100110011010
1111101101111000
0000011001100110
1111100110011010
1111100110011010
0000011001100011
1111100110011010
0000011001100110
0000011001100110
0000011001100110
1111100110011010
0000011001100110
0000011001100110
0000011001100110
1111101010011110
1111100110011010
0000011001100110
1111100110011010
0000011001100110
0000011001100110
1111100110011010
1111100110011010
0000011001100110
1111111011100101
0000011001100000
1111100110011010
1111100110011010
1111100110011010
0000011001100110
0000011001100110
0000011001100011
0000011001100110
1111100110011010
0000011001100110
1111100110011010
1111100110011010
0000011001100110
1111100110011010
0000011001100110
1111100110011010
1111100110011010
0000011001100110
0000011001100110
0000011001100110
1111100110011010
0000011001100110
0000010001010000
0000011001100110
0000011001100110
1111100110011010
0000011001100110
0000011001100110
0000011001100110
0000011000110011
1111100110011010
0000011001100110
1111100110011010
1111100110011010
1111101110000010
0000011001100110
1111111100010010
0000010101100001
0000000100100001
1111100110011010
0000000110011111
1111100110011010
1111100110011010
1111100110011010
1111111010010001
0000010100111011
1111100110011010
1111100110011010
0000001111111111
1111101011011110
0000001011101100
0000011001100110
1111111010000010
0000000110110100
0000011001100110
1111101111000100
0000011001100110
1111100110011010
0000001110100100
1111100110011010
1111101100111000
1111100110011010
0000001111000111
0000000010000010
1111111100011001
1111100110011010
0000010000100111
1111110000011110
1111100110011010
1111101000101100
0000011001100110
1111110110111011
0000011001100110
1111101001110111
1111111000101101
1111101001000111
0000010101101100
1111100110011010
1111100110011010
1111100110011010
1111111010111010
1111111111011000
1111100110011010
1111100110011010
1111110000010111
1111100110011010
1111100110011010
1111110101110101
1111100110011010
0000011001100110
0000010000010100
0000001011001111
0000010111000111
1111101010011001
0000011001100110
1111100110011010
0000000111011000
0000001001110000
0000010111101101
1111100110011010
0000011001100110
0000001110100011
1111100110011010
1111110010010001
0000010000010001
1111100110011010
1111110100010100
0000010010100110
0000001101100010
1111111001101001
1111101001111010
0000000000101000
0000011001100110
1111101011000001
1111110111001100
0000011001100110
0000011001100110
1111101011110001
0000000111110010
1111100110011010
1111100110011010
0000011001100110
0000011001100110
1111111101101110
1111111100000110
0000011001100110
0000011001100110
0000001110100010
1111110010111000
1111101111001000
1111100110011010
0000010110000001
1111110100000110
1111111111100001
1111111000000101
0000011001100110
1111100110011010
1111100110011010
0000011001100110
0000000100111000
1111111011100101
0000011000000001
1111111011101111
1111100110011010
1111100110011010
1111100110011010
0000001001101110
1111100110011010
1111100110011010
1111100110011010
1111110101100100
0000011001100110
0000011001100001
1111101011100100
0000011001100110
1111100110011010
0000011001100110
1111100110011010
1111111101000011
0000010101101101
1111100110011010
