1111111111110100
0000000000001100
1111111111110100
1111111111110100
1111111111110100
0000000000001100
0000000000001100
0000000000001100
0000000000001100
0000000000001100
0000000000001100
0000000000001011
0000000000001100
1111111111110100
0000000000001100
0000000000001100
1111111111111101
0000000000000010
0000000000001100
1111111111110100
1111111111110100
0000000000001100
0000000000001100
0000000000001011
0000000000001011
0000000000001011
0000000000001100
0000000000001100
0000000000001100
0000000000001100
0000000000001100
0000000000001100
