0000000000001100
1111111111110100
0000000000001100
1111111111110101
0000000000001100
1111111111110100
1111111111110100
0000000000001100
1111111111110100
1111111111110100
0000000000001100
1111111111110101
1111111111110100
0000000000001100
0000000000001100
1111111111110100
1111111111110100
1111111111110100
1111111111110100
0000000000001100
0000000000001000
1111111111110100
0000000000001100
0000000000001100
1111111111110101
1111111111110100
1111111111110100
0000000000001100
1111111111110100
1111111111110100
1111111111110100
0000000000001100
1111111111110100
0000000000001100
0000000000001001
1111111111110100
1111111111110100
0000000000001100
0000000000001100
1111111111110100
0000000000001100
0000000000001100
1111111111110100
0000000000001100
1111111111110100
1111111111110100
1111111111110100
0000000000001100
1111111111110100
1111111111110100
0000000000001100
1111111111110100
0000000000001000
0000000000001100
1111111111110100
1111111111110100
1111111111111111
1111111111110100
1111111111110100
1111111111110100
0000000000001100
1111111111110100
0000000000001100
0000000000001100
0000000000001100
0000000000001100
1111111111110110
1111111111110100
1111111111110100
0000000000001100
1111111111110100
1111111111110100
0000000000001100
0000000000001100
1111111111110100
1111111111110100
1111111111110100
1111111111110100
1111111111110100
0000000000001100
1111111111110100
1111111111110100
0000000000001100
0000000000001100
1111111111110100
0000000000001100
0000000000001100
0000000000001100
1111111111110100
1111111111110100
1111111111110100
1111111111110100
1111111111110100
1111111111110100
0000000000001100
1111111111110100
0000000000001100
0000000000001100
1111111111110100
1111111111110101
0000000000001100
1111111111110100
1111111111110100
0000000000001100
0000000000001100
0000000000001100
0000000000001100
0000000000001011
1111111111110100
1111111111110100
1111111111110100
0000000000001100
0000000000001100
1111111111110100
0000000000001100
1111111111110100
1111111111110101
1111111111110100
1111111111110100
1111111111110100
1111111111110100
0000000000001100
1111111111110100
0000000000001100
1111111111110100
1111111111110100
0000000000001100
1111111111110110
1111111111110100
1111111111110100
1111111111110100
0000000000000000
1111111111110100
1111111111110100
0000000000001011
1111111111110100
1111111111110100
1111111111110100
1111111111110100
1111111111110110
0000000000001100
1111111111110100
0000000000001100
1111111111110100
0000000000001100
1111111111110100
1111111111110100
1111111111110100
1111111111110100
0000000000001100
0000000000001100
0000000000001100
1111111111110100
0000000000001100
0000000000001100
1111111111110100
0000000000001011
0000000000001100
1111111111110100
1111111111110100
1111111111111111
1111111111110100
1111111111110101
1111111111110101
0000000000001100
1111111111110100
1111111111110100
0000000000001100
0000000000001100
1111111111110100
0000000000001100
0000000000001011
1111111111110100
0000000000001100
0000000000001100
0000000000001100
0000000000001100
0000000000001011
1111111111110100
1111111111111011
0000000000001100
1111111111110100
1111111111110100
1111111111110100
0000000000001100
0000000000001100
1111111111110100
0000000000001100
1111111111110100
1111111111110100
1111111111110100
0000000000001100
0000000000001100
1111111111110100
0000000000001001
1111111111110100
1111111111110100
0000000000001100
1111111111110100
1111111111110100
1111111111110100
0000000000001100
1111111111110100
1111111111110100
1111111111110100
1111111111110100
0000000000001100
1111111111110100
1111111111110100
1111111111110101
1111111111110100
1111111111110100
0000000000001000
0000000000001100
0000000000001100
0000000000001100
0000000000001010
1111111111110100
0000000000001100
1111111111110100
1111111111110100
0000000000001100
0000000000001100
0000000000001100
1111111111110100
1111111111110100
0000000000000100
0000000000001011
1111111111110100
1111111111110100
0000000000001100
0000000000001100
1111111111110100
1111111111110100
0000000000001100
1111111111110100
0000000000001100
0000000000001100
1111111111110100
1111111111110100
1111111111110100
1111111111110110
0000000000001100
0000000000001100
1111111111110100
1111111111110100
1111111111110100
1111111111110100
1111111111110101
0000000000001100
0000000000001100
0000000000001100
0000000000001100
0000000000001100
1111111111110100
1111111111110100
1111111111110100
0000000000001100
0000000000001001
1111111111110100
0000000000001100
1111111111110100
1111111111111110
1111111111110100
0000000000001100
1111111111110100
1111111111110100
0000000000000001
1111111111110100
0000000000001100
0000000000001100
0000000000001100
0000000000001100
1111111111111101
0000000000001011
0000000000001100
1111111111110100
0000000000001100
1111111111110100
1111111111111000
0000000000000100
0000000000001010
1111111111110100
1111111111110100
0000000000001011
1111111111110100
1111111111110100
0000000000001100
1111111111110100
1111111111110100
1111111111110101
0000000000001011
1111111111110100
1111111111110100
0000000000001100
1111111111110100
1111111111110100
1111111111110100
1111111111110100
1111111111111011
0000000000001100
0000000000001100
0000000000001100
1111111111110100
0000000000001100
1111111111111111
0000000000001100
1111111111111111
1111111111110101
0000000000001100
1111111111110100
1111111111110100
1111111111111101
0000000000001100
0000000000001100
1111111111110100
0000000000001100
0000000000001100
1111111111110100
1111111111110100
