0000011001100110
1111100110011010
0000011001100110
1111100110101000
1111100111001001
0000001110110000
1111110110110001
0000011001100110
1111100111000111
1111100110100101
0000011001100110
0000011001100110
0000011001100110
0000011001100110
1111100110011101
1111110110111011
0000011001100110
0000011001100110
1111100110111001
0000011001100011
0000011001100110
1111100110011010
1111110001010110
0000011001100110
0000011001100110
0000011001100110
0000011001100110
0000011001100110
0000011001011111
0000011001100110
0000011001100110
1111100110011010
