0000011001100110
0000011001100110
0000011001100110
0000011001100110
0000011001100110
1111101010011010
0000011001100110
0000011001100110
0000011001100110
0000011001100110
0000011001100110
0000011001100110
0000011001100110
0000011001100110
0000011001100110
0000011001100110
0000011001100110
0000011001100110
0000011001100110
0000011001100110
0000011001100110
0000011001100110
0000011001100110
0000011001100110
0000011001100110
0000011001100110
0000011001100110
0000011000101011
0000011001100110
0000011001100000
0000011001100110
0000011001100110
1111101001000110
0000011001100110
0000011001100110
0000001010011000
0000011001100110
0000011001100110
0000010100110111
0000011001100110
0000011001100110
0000011001100110
0000001101110001
0000011001100110
0000011001100110
0000011001100110
0000011001100110
0000011001100110
0000011001100110
0000011001100110
0000011001100110
1111110101110011
0000011001100110
0000011001100110
0000011001100110
0000011001100110
0000011001100110
0000011001100110
0000011001100110
0000011001100110
0000011000101010
0000011001100100
0000011001100110
0000011001100110
0000011001100110
0000010000111010
1111111110010110
0000011001100110
0000011001100110
0000011001100110
0000011001100110
1111100111010110
0000011001100110
0000011001100110
0000011001100110
0000011001100101
0000011001100110
0000011001100110
0000011001100110
0000011001100000
1111110100000001
0000011001100000
0000011001011100
0000011001100110
0000011001100110
1111111101011001
0000011001100110
0000011001100110
1111100111010010
0000011001100110
0000001010001010
0000011001100110
0000011001100110
0000011001100110
1111111110011010
0000011001100110
0000011001100110
1111100110111101
0000011001100110
0000011001100110
0000011001100110
0000011001100110
0000011001100110
0000011001100110
0000011001100110
0000011001100110
0000011001100110
0000011001100110
0000011001100011
0000011001100110
0000011001100110
0000011001100110
0000011001100110
0000011001100110
0000010111111001
1111100110110110
0000011001100110
0000011001100110
0000011001100110
0000011001100110
0000011001100110
0000011001100110
0000011001100110
0000011001100110
0000011001100110
0000011001100110
0000011001100101
0000011001100110
