0000001000010111
1111001110110010
1111110001011011
1111101111111101
1111101101111001
0000001010011000
0000110011001001
0000001110011001
1111010011000011
1111111110001110
0000010110000000
1111010000111011
1111001101000100
1111111100111101
0000001011101010
1111110100011100
0000101100001101
0000010110000011
0000011001011011
0000000100000101
1111111101001111
1111110101011011
0000110010100010
0000001100100101
0000010011100001
1111111110000110
1111100111100111
0000001110000011
0000101010100101
0000101011000010
0000011100110101
1111101110111010
