0000111111100000
0000000000000000
0000000000010000
0000000000100000
0000111111100000
0000000000110000
0000111111110000
0000000001110000
0000111111100000
0000000000110000
0000111111100000
0000000001100000
0000111111100000
0000000000010000
0000000000110000
0000000000000000
0000000001010000
0000111111100000
0000111110110000
0000000000000000
0000111111100000
0000000001100000
0000000000110000
0000000001000000
0000111111100000
0000000000100000
0000111111100000
0000111111100000
0000000000000000
0000000000010000
0000000000000000
0000000000000000
0000000000010000
0000000001000000
0000000010010000
0000000000010000
0000111111110000
0000000000000000
0000000000100000
0000000000000000
0000000000000000
0000000001010000
0000111111110000
0000000000000000
0000000000000000
0000000000000000
0000000000010000
0000000000010000
0000000000100000
0000111111110000
0000111111110000
0000000000010000
0000000000000000
0000111111110000
0000111111010000
0000000001010000
0000000000100000
0000000000010000
0000000000100000
0000111111100000
0000111111010000
0000000000010000
0000111111100000
0000111111100000
0000000000100000
0000111110100000
0000111111010000
0000000000010000
0000000000010000
0000111111100000
0000111111110000
0000000000100000
0000111111100000
0000111111100000
0000000000110000
0000000000010000
0000111110110000
0000111111110000
0000000000010000
0000000000000000
0000000000010000
0000000000100000
0000111111010000
0000111111110000
0000111111100000
0000111111110000
0000111111110000
0000111111100000
0000000000000000
0000111111100000
0000111111000000
0000111111100000
0000111111010000
0000111111100000
0000000000110000
0000000000100000
0000000000000000
0000000001010000
0000111111100000
0000000000000000
0000000000000000
0000111111100000
0000111110110000
0000000001000000
0000111111110000
0000000000100000
0000000000010000
0000111111100000
0000000001100000
0000000000010000
0000000000010000
0000111111110000
0000000000010000
0000000000000000
0000000000000000
0000111111110000
0000111110000000
0000000000000000
0000111111010000
0000111111110000
0000000000010000
0000000000000000
0000111111000000
0000000000100000
0000000000100000
0000000001100000
0000000000010000
0000000000100000
0000000000100000
0000000000010000
0000000000000000
0000111111110000
0000000000000000
0000111111010000
0000000000000000
0000111111100000
0000111111110000
0000000000000000
0000111111000000
0000000000000000
0000000000000000
0000111110110000
0000000000100000
0000000000000000
0000000000000000
0000000000000000
0000111111100000
0000000000010000
0000000000010000
0000111110100000
0000111111000000
0000000000000000
0000111111000000
0000111111110000
0000000000000000
0000000000100000
0000111111110000
0000000000100000
0000000000010000
0000000000000000
0000111111100000
0000111111110000
0000111110010000
0000111111110000
0000000000100000
0000000000010000
0000111111010000
0000000000000000
0000000000010000
0000111111100000
0000000000100000
0000000000000000
0000000000000000
0000000000010000
0000111111110000
0000111111110000
0000000000100000
0000111111100000
0000111111110000
0000000000000000
0000111111110000
0000111111100000
0000000000100000
0000111111100000
0000111111000000
0000000000100000
0000111111010000
0000000000110000
0000000000100000
0000000000100000
0000000000000000
0000000000100000
0000111111110000
0000111111000000
0000000000100000
0000111111110000
0000000000000000
0000000000100000
0000111111100000
0000000000100000
0000000001000000
0000111110010000
0000111111010000
0000111111010000
0000000000010000
0000111111110000
0000000000010000
0000111111010000
0000000000000000
0000000000010000
0000111111110000
0000000000000000
0000111111100000
0000111111110000
0000000000000000
0000000000000000
0000000000010000
0000000000000000
0000111111110000
0000111111110000
0000000000010000
0000000001010000
0000000000010000
0000111111110000
0000000000110000
0000111111110000
0000000000100000
0000111111010000
0000111111010000
0000111111110000
0000000000110000
0000111111110000
0000000000010000
0000111111000000
0000000000000000
0000000000010000
0000000000000000
0000111111110000
0000000000010000
0000000000100000
0000000000010000
0000000000000000
0000000000000000
0000111111110000
0000111111110000
0000111111110000
0000000000000000
0000000000010000
0000000000010000
0000111111000000
0000111111110000
0000000000010000
0000000000010000
0000000000010000
0000000000000000
0000000000000000
0000000000100000
0000000000010000
0000000000000000
0000111110010000
0000000000000000
0000000000100000
0000000000000000
0000000000100000
0000000000000000
0000111110000000
0000000000100000
0000111111100000
0000111111110000
0000000000100000
0000000000010000
0000000000000000
0000000000010000
0000111111110000
0000000000100000
0000000000010000
0000000000010000
0000111111010000
0000111111000000
0000111110110000
0000000000000000
0000000000010000
0000000000100000
0000000000010000
0000111111110000
0000000000000000
0000000000010000
0000000000010000
0000000000010000
0000000000000000
0000111110100000
0000000000010000
0000111111010000
0000000000100000
0000111111100000
0000000000000000
0000111111110000
0000111111000000
0000111111100000
0000000000000000
0000000000000000
0000000000010000
0000111111110000
0000111111100000
0000111111110000
0000111111100000
0000111111110000
0000111111110000
0000111111110000
0000000000010000
0000000000100000
0000000000000000
0000111111110000
0000000000100000
0000000000000000
0000000000110000
0000000001000000
0000000000000000
0000000000010000
0000000000100000
0000111111110000
0000000000100000
0000000000100000
0000111111000000
0000111111110000
0000111111110000
0000000000000000
0000111110100000
0000000000110000
0000000000010000
0000111111100000
0000000000010000
0000000001000000
0000000000010000
0000111111110000
0000111111110000
0000111111110000
0000000000010000
0000000000010000
0000000000010000
0000000000110000
0000000000010000
0000000000100000
0000000000100000
0000111111100000
0000000000100000
0000000000100000
0000000000010000
0000000000010000
0000000000010000
0000111110000000
0000111111110000
0000000000100000
0000111110110000
0000000000010000
0000111111010000
0000111111110000
0000000000010000
0000000000010000
0000111111110000
0000000000100000
0000111111010000
0000000000010000
0000000000100000
0000111110110000
0000000000100000
0000000000010000
0000000000010000
0000111111000000
0000111111110000
0000111111100000
0000111111100000
0000000000110000
0000111111110000
0000111111110000
0000000000000000
0000111111110000
0000111111100000
0000000000100000
0000000000100000
0000111111110000
0000111101100000
0000000000010000
0000000000010000
0000111111110000
0000000000000000
0000111111110000
0000111111110000
0000111111110000
0000000001000000
0000111111010000
0000111111010000
0000111111100000
0000000000100000
0000000000100000
0000000001010000
0000000000100000
0000000000010000
0000111111000000
0000111111100000
0000000000100000
0000000000000000
0000111111010000
0000000000100000
0000000000010000
0000000001000000
0000000000010000
0000000000010000
0000000000100000
0000000000100000
0000000000010000
0000111111010000
0000000000000000
0000111110110000
0000000000100000
0000111111100000
0000000000000000
0000000000100000
0000000010100000
0000000000010000
0000111111000000
0000000000000000
0000111111100000
0000111111110000
0000111111110000
0000000000110000
0000000000000000
0000111111110000
0000111111100000
0000000000000000
0000111111010000
0000111111110000
0000000000010000
0000000000000000
0000111111010000
0000000000000000
0000111111110000
0000000000010000
0000111111100000
0000000001000000
0000000001000000
0000111111100000
0000000000100000
0000000000000000
0000111110110000
0000000000000000
0000111111010000
0000111111000000
0000000000000000
0000000000100000
0000000000010000
0000000000010000
0000000000000000
0000111111100000
0000111111100000
0000111111010000
0000111111110000
0000111111100000
0000000001010000
0000000000110000
0000111111010000
0000000000000000
0000111111100000
0000000000000000
0000111111010000
0000000000100000
0000111111010000
0000111111010000
0000111111110000
0000000000100000
0000111111110000
0000000000000000
0000000000110000
0000111111010000
0000111111010000
0000000000000000
0000000000000000
0000111111000000
0000000000110000
0000111111110000
0000111111000000
0000000000100000
0000000000010000
0000000000010000
0000111111110000
0000000000010000
0000111111000000
0000000000100000
0000000000000000
0000000000110000
0000111111100000
0000000000000000
0000000000110000
0000111111110000
0000111111110000
0000111111110000
0000111111110000
0000000000000000
0000000000000000
0000000000010000
0000000000000000
0000111111100000
0000000000100000
0000111111100000
0000111111110000
0000000000010000
0000111111100000
0000000000000000
0000111111110000
0000000001000000
0000111111110000
0000000000000000
0000000000010000
0000000000100000
0000111111100000
0000111111110000
0000000000010000
0000000001010000
0000111111100000
0000111111010000
0000111111110000
0000000000000000
0000000000000000
0000111111010000
0000000000010000
0000000000010000
0000000001000000
0000111111110000
0000111111100000
0000111111010000
0000000000010000
0000000000010000
0000111111110000
0000111111110000
0000000000010000
0000111111010000
0000111111000000
0000000000110000
0000000000010000
0000000000000000
0000000000000000
0000111111000000
0000000000010000
0000000000010000
0000111111010000
0000000000000000
0000000000000000
0000000000010000
0000111111100000
0000000000010000
0000111101110000
0000000000010000
0000000000100000
0000000000000000
0000111111100000
0000000000100000
0000000000000000
0000111111110000
0000111111100000
0000111111100000
0000000000010000
0000000000010000
0000000001000000
0000000000010000
0000000000010000
0000000000110000
0000111111110000
0000111111100000
0000000000100000
0000000000000000
0000000000100000
0000000000100000
0000000000010000
0000111111100000
0000111111100000
0000000000110000
0000000000010000
0000111111100000
0000000000010000
0000111111100000
0000111111110000
0000111111010000
0000111111110000
0000111111000000
0000111111110000
0000000000000000
0000111111100000
0000000000100000
0000111111100000
0000111111010000
0000000000010000
0000111111100000
0000111111110000
0000000000000000
0000000000000000
0000000000010000
0000111111110000
0000000000000000
0000000000000000
0000000000010000
0000111111000000
0000111111110000
0000111111110000
0000000000000000
0000111111110000
0000111111010000
0000000000000000
0000000000110000
0000000000100000
0000000000000000
0000000000000000
0000111111110000
0000111111100000
0000111111010000
0000111111110000
0000000000010000
0000111111100000
0000000000110000
0000111111110000
0000000000000000
0000000000010000
0000000000100000
0000000000000000
0000000000010000
0000111111100000
0000000000100000
0000000000000000
0000111111010000
0000000000100000
0000000000010000
0000111111110000
0000111111110000
0000000000000000
0000111111110000
0000000000010000
0000111111110000
0000111111010000
0000111111010000
0000111111110000
0000000000000000
0000000000000000
0000111111110000
0000111111110000
0000111111100000
0000000000000000
0000111111010000
0000111111100000
0000000000100000
0000000000010000
0000111111110000
0000111111100000
0000000001010000
0000000000000000
0000111111010000
0000000000010000
0000000000000000
0000111111010000
0000111111110000
0000000000100000
0000111111110000
0000000000000000
0000000000100000
0000111111000000
0000111111100000
0000000000000000
0000000000100000
0000111111100000
0000111111100000
0000000000000000
0000000000000000
0000000000000000
0000111111110000
0000111111100000
0000000000100000
0000000000000000
0000111111100000
0000111111110000
0000000000100000
0000000000110000
0000000000010000
0000111111100000
0000000000010000
0000111111100000
0000111111100000
0000000000010000
0000111111110000
0000111111100000
0000000000000000
0000111111100000
0000111111110000
0000000000010000
0000111111010000
0000000000010000
0000000000000000
0000000000000000
0000000000110000
0000111110110000
0000111111110000
0000111111000000
0000000000010000
0000111111110000
0000000000000000
0000000000000000
0000000000010000
0000111111010000
0000000000110000
0000000000010000
0000111111100000
0000000000000000
0000111111100000
0000000000100000
0000000000100000
0000111111110000
0000000000100000
0000111111110000
0000111111110000
0000000000000000
0000000000010000
0000000000100000
0000111111000000
0000111111110000
0000000000000000
0000000000000000
0000000000000000
0000000000000000
0000111111000000
0000111111110000
0000000000100000
0000000000010000
0000111111010000
0000111111110000
0000111111110000
0000000000000000
0000000000110000
0000000000010000
0000000000000000
0000111111110000
0000000000100000
0000111111110000
0000000000010000
0000000000110000
0000000000000000
0000000000000000
0000000000100000
0000111111100000
0000111111010000
0000000000000000
0000000000010000
0000000000100000
0000000000000000
0000111111110000
0000000000010000
0000111111100000
0000111111100000
0000000000000000
0000000000000000
0000111110100000
0000000000000000
0000000000100000
0000000000000000
0000111111110000
0000000000100000
0000000000100000
0000000000000000
0000111111110000
0000000001100000
0000111111010000
0000111111110000
0000000000100000
0000000000000000
0000000000000000
0000000000100000
0000111111100000
0000000000110000
0000000000010000
0000111110100000
0000000000010000
0000111111010000
0000000000010000
0000111111110000
0000000000000000
0000000000110000
0000000000100000
0000000000000000
0000000000000000
0000000000010000
0000000000100000
0000000000110000
0000000000010000
0000111110110000
0000111111010000
0000111111000000
0000000000100000
0000000000110000
0000111111100000
0000000000000000
0000000000010000
0000000000000000
0000000000010000
0000000000000000
0000000000010000
0000000000000000
0000111111010000
0000111111110000
0000111111010000
0000000000000000
0000111110110000
0000111111110000
0000000000010000
0000111111010000
0000111111100000
0000111111110000
0000000000000000
0000111111100000
0000111111010000
0000000000100000
0000000000000000
0000111110110000
0000000000000000
0000111111010000
0000000000000000
0000111111010000
0000111111100000
0000111111100000
0000000000000000
0000000000010000
0000111111110000
0000000001010000
0000000000000000
0000000000000000
0000000000000000
0000000000010000
0000111111100000
0000111110010000
0000000000110000
0000111111100000
0000000000010000
0000000000100000
0000000000110000
0000000000010000
0000000000100000
0000111111100000
0000111111110000
0000000000010000
0000000000100000
0000000000000000
0000000000010000
0000000000010000
0000000000010000
0000000000010000
0000000000100000
0000000000010000
0000111111110000
0000000000100000
0000000000000000
0000000000000000
0000000000000000
0000111111010000
0000000000110000
0000111111100000
0000111111110000
0000111111110000
0000111110100000
0000111111110000
0000111111010000
0000000000000000
0000000000010000
0000111110010000
0000111111000000
0000111111110000
0000000000010000
0000111111110000
0000111111010000
0000000000000000
0000000000100000
0000000000000000
0000000000000000
0000000000000000
0000000000000000
0000000000010000
0000111111110000
0000111111110000
0000000000110000
0000000000000000
0000000000010000
0000111111110000
0000000000110000
0000000000010000
0000000000100000
0000000000000000
0000000000100000
0000111111010000
0000111110110000
0000000000000000
0000111111100000
0000111111100000
0000000000000000
0000111111100000
0000000000000000
0000000000100000
0000111111110000
0000111111100000
0000000000100000
0000111111100000
0000000000000000
0000000001000000
0000111110110000
0000000001010000
0000111111110000
0000111110010000
0000111111100000
0000000000100000
0000111111000000
0000000000110000
0000111111110000
0000111110100000
0000000000000000
0000111111010000
0000000000010000
0000000001100000
0000000000100000
0000111111000000
0000111111110000
0000000000000000
0000111111110000
0000111111100000
0000000000010000
0000111111010000
0000000000100000
0000111111110000
0000000000010000
0000000000010000
0000000000000000
0000000000010000
0000000010010000
0000000000000000
0000111111100000
0000000000000000
0000000000010000
0000111111110000
0000000000000000
0000000000000000
0000111111100000
0000000000100000
0000000000000000
0000000000000000
0000111111110000
0000000000000000
0000111111110000
0000111111110000
0000000000100000
0000000000010000
0000000000000000
0000000000010000
0000111111100000
0000111111100000
0000111111100000
0000111111110000
0000000000010000
0000111111100000
0000000000100000
0000000000110000
0000000000000000
0000000000000000
0000000000000000
0000000001000000
0000111111110000
0000000000110000
0000111111010000
0000000000000000
0000000000000000
0000111111010000
0000000000000000
0000000000100000
0000000000010000
0000000000000000
0000000000000000
0000000000000000
0000000000000000
0000111111100000
0000111111010000
0000000000110000
0000000000010000
0000000000100000
0000000000110000
0000000000010000
0000111111100000
0000111111110000
0000000000000000
0000111111110000
0000000001010000
0000111111110000
0000000000010000
0000000001100000
0000000000000000
0000000000010000
0000000000010000
0000000000100000
0000111111110000
0000111111110000
0000111111110000
0000111111110000
0000000000010000
0000000000010000
0000000001100000
0000000000000000
0000000000000000
0000000000010000
0000000001000000
0000000000000000
0000000000010000
0000000000010000
0000000000000000
0000000000000000
0000000000010000
0000000000000000
0000000000000000
0000111111110000
0000111111110000
0000000000010000
0000000000100000
0000000001100000
0000000000100000
0000000000000000
0000111111100000
0000000000000000
0000111111110000
0000000000110000
0000000000010000
0000000000010000
0000000000000000
0000111111100000
0000111111110000
0000000000110000
0000000000110000
0000111111100000
0000000000010000
0000000000010000
0000000000000000
0000000000010000
0000111111010000
0000111111110000
0000000000000000
0000111111110000
0000000000000000
0000000000100000
0000000001000000
0000000000000000
0000111111010000
0000000000100000
0000000000100000
0000111111110000
0000000000010000
0000111110110000
0000111111100000
0000000000110000
0000111111000000
0000111111010000
0000000000100000
0000000000100000
0000000000110000
0000000000010000
0000111111000000
0000111111110000
0000000000100000
0000000000110000
0000000000100000
0000000000100000
0000000000010000
0000111111100000
0000111111110000
0000000000010000
0000000000010000
0000000001100000
0000000000110000
0000000000010000
0000000000000000
0000000000110000
0000111111100000
0000111111110000
0000000000100000
0000000000010000
0000000000000000
0000111111000000
0000111111100000
0000000000000000
0000111111110000
0000000000100000
0000000000100000
0000111111100000
0000111111100000
0000000001000000
0000000000100000
0000111111010000
0000000000000000
0000111111110000
0000111111000000
0000000000100000
0000000000110000
0000000000100000
0000111111010000
0000111111010000
0000000000000000
0000111111010000
0000000000000000
0000000000100000
0000000000100000
0000000000100000
0000111111100000
0000000000010000
0000000000100000
0000000000010000
0000111111000000
0000000000010000
0000000000010000
0000111111110000
0000111111000000
0000111110100000
0000000000110000
0000000000100000
0000000000000000
0000000000000000
0000111111010000
0000000000100000
0000000000000000
0000111111010000
0000111111100000
0000000000000000
0000111111110000
0000000000110000
0000000000010000
0000000000010000
0000000000010000
0000000000010000
0000000000100000
0000111111100000
0000111111110000
0000000000100000
0000000000110000
0000000000100000
0000111111100000
0000111111110000
0000111111100000
0000111111010000
0000000000110000
0000000001000000
0000000000100000
0000111111010000
0000111111010000
0000000000010000
0000000000100000
0000000000000000
0000000000000000
0000000000100000
0000111111100000
0000111111110000
0000000000110000
0000111111100000
0000000000000000
0000000001100000
0000111111110000
0000000000110000
0000111111100000
0000000000000000
0000000000100000
0000111111010000
0000000000100000
0000000000010000
0000000000100000
0000111111110000
0000111111010000
0000000000010000
0000111111110000
0000000000110000
0000000000010000
0000000000000000
0000111110110000
0000000000000000
0000000000000000
0000000000100000
0000111111100000
0000000000010000
0000000000010000
0000000000100000
0000111111100000
0000000001100000
0000000000000000
0000000000110000
0000000001010000
0000111111100000
0000000000010000
0000111111110000
0000111111110000
0000000001000000
0000000000100000
0000000000010000
0000111111110000
0000000000100000
0000000000110000
0000111111110000
0000000000010000
0000000000010000
0000000000100000
0000000000010000
0000000000000000
0000000000000000
0000000000000000
0000000000010000
0000111111100000
0000000000000000
0000000000110000
0000111110110000
0000111111110000
0000000000010000
0000111111100000
0000000000010000
0000000000010000
0000000000100000
0000111111010000
0000000000000000
0000000000000000
0000111111010000
0000111111100000
0000000000010000
0000111111100000
0000111111110000
0000111111110000
0000111111110000
0000111111000000
0000111111000000
0000000000000000
0000111111000000
0000000000000000
0000000000100000
0000111111100000
0000000000100000
0000000000010000
0000111110010000
0000111111110000
0000111111110000
0000111111110000
0000000000000000
0000111111110000
0000111111110000
0000000000000000
0000000001000000
0000000000110000
0000000000110000
0000000000100000
0000111111100000
0000000000010000
0000000000100000
0000000000000000
0000111111110000
0000000000010000
0000000001010000
0000000000100000
0000000000010000
0000111111110000
0000000000000000
0000111111010000
0000111111110000
0000000000010000
0000000000000000
0000000000010000
0000000000000000
0000111111010000
0000111111100000
0000111111000000
0000111111110000
0000111111110000
0000000000010000
0000000000010000
0000111111110000
0000000000010000
0000000000000000
0000000001010000
0000111111110000
0000000000100000
0000000000010000
0000000000100000
0000000000000000
0000111111110000
0000000000000000
0000000000010000
0000111111100000
0000000000000000
0000111101100000
0000111111100000
0000000000010000
0000000000010000
0000111110110000
0000000000100000
0000111111110000
0000111110110000
0000000000010000
0000000000000000
0000111111110000
0000111111100000
0000000000110000
0000000000010000
0000111110000000
0000000000100000
0000111111110000
0000111111110000
0000111110110000
0000000000000000
0000000000000000
0000000000010000
0000000000000000
0000111111110000
0000111111100000
0000111111100000
0000000000000000
0000111111100000
0000111111100000
0000111111100000
0000000000010000
0000111110110000
0000000000010000
0000000000010000
0000111110010000
0000000000010000
0000111111110000
0000111111110000
0000000000100000
0000111111100000
0000111111100000
0000111111110000
0000111111110000
0000000000000000
0000000000000000
0000000000000000
0000111111100000
0000000000010000
0000111111000000
0000000001000000
0000000000000000
0000000000100000
0000000000000000
0000111111100000
0000000000010000
0000111111100000
0000111111010000
0000000000010000
0000111110100000
0000000000000000
0000000000010000
0000000000010000
0000000000010000
0000111111110000
0000111111110000
0000000000000000
0000111111000000
0000000000000000
0000000001000000
0000000000100000
0000111111100000
0000000000010000
0000000000100000
0000111111110000
0000111111100000
0000000000100000
0000111111110000
0000000000100000
0000000000000000
0000000000100000
0000000000010000
0000000000010000
0000000000000000
0000000000010000
0000000000000000
0000000000100000
0000000000100000
0000000000010000
0000000000100000
0000000000000000
0000111111010000
0000000000100000
0000111111110000
0000111111000000
0000111111110000
0000000000010000
0000111110100000
0000000000010000
0000000000110000
0000111111110000
0000111111110000
0000111111000000
0000000000000000
0000000000000000
0000111111110000
0000000000000000
0000000000000000
0000000001000000
0000000000010000
0000000001110000
0000000000000000
0000000000100000
0000111111010000
0000000000010000
0000111111000000
0000111111100000
0000111111000000
0000111111010000
0000111111110000
0000000000000000
0000000000010000
0000000000000000
0000000000100000
0000000000010000
0000111111110000
0000000000010000
0000111111110000
0000111111010000
0000111111110000
0000111111100000
0000111110100000
0000111111100000
0000000001000000
0000111111110000
0000000000100000
0000111111100000
0000111111100000
0000000001000000
0000000000010000
0000111111010000
0000000000010000
0000000000000000
0000111111110000
0000111111010000
0000000000000000
0000000000010000
0000111110110000
0000000000100000
0000000000000000
0000000000000000
0000000001100000
0000000000000000
0000111111100000
0000000001000000
0000000000100000
0000111111110000
0000111111100000
0000000000000000
0000000000000000
0000000000110000
0000111111110000
0000000000000000
0000111111110000
0000111111110000
0000111111110000
0000000000000000
0000000000110000
0000000000100000
0000000000010000
0000000000000000
0000111110100000
0000111111010000
0000111111110000
0000111111100000
0000111111100000
0000000000000000
0000000001110000
0000000000100000
0000111111100000
0000000000100000
0000000000000000
0000000000000000
0000000000100000
0000000000100000
0000111110100000
0000111111100000
0000000001000000
0000111111110000
0000000000000000
0000111111100000
0000000000110000
0000000000000000
0000000000000000
0000000000000000
0000000000000000
0000000000100000
0000000000010000
0000000001000000
0000000001000000
0000000000100000
0000000001000000
0000000000000000
0000111111110000
0000111111100000
0000000000000000
0000000001010000
0000111111100000
0000000000000000
0000000000010000
0000000001000000
0000111111100000
0000111111100000
0000111111110000
0000000000110000
0000000001010000
0000111111100000
0000000000000000
0000000000010000
0000111111110000
0000000000010000
0000111111000000
0000111111010000
0000000000010000
0000111111110000
0000111111010000
0000000000100000
0000111111100000
0000000000110000
0000111111100000
0000111111010000
0000000000000000
0000111111110000
0000111111100000
0000111111000000
0000000000010000
0000000000100000
0000000000110000
0000111111110000
0000111111110000
0000000000000000
0000000000010000
0000000000100000
0000111111010000
0000111111010000
0000000000010000
0000000001010000
0000111111110000
0000000000000000
0000111111110000
0000111111100000
0000111111110000
0000111111110000
0000000000000000
0000111111110000
0000111110110000
0000000000110000
0000000001010000
0000111111110000
0000000000100000
0000111111010000
0000000000110000
0000111111010000
0000111110100000
0000111111110000
0000111111110000
0000111111100000
0000000001010000
0000000000010000
0000111111000000
0000111111110000
0000000000010000
0000000000010000
0000000001010000
0000000000110000
0000000000010000
0000000000000000
0000000000010000
0000000000010000
0000111111100000
0000111111110000
0000111111010000
0000000001100000
0000111111010000
0000000000000000
0000000000100000
0000000000110000
0000111111110000
0000000010110000
0000000000000000
0000111111010000
0000000000110000
0000000000010000
0000111111100000
0000000000000000
0000000000000000
0000111111100000
0000000000100000
0000000000000000
0000000000010000
0000000000000000
0000111111100000
0000111111100000
0000000000010000
0000000000000000
0000111111110000
0000111111000000
0000000000100000
0000111111000000
0000111110110000
0000000000000000
0000000000000000
0000000000100000
0000000000010000
0000000000010000
0000000000110000
0000000000010000
0000111111110000
0000111111110000
0000111111110000
0000111111110000
0000000000010000
0000111111100000
0000000000100000
0000000000000000
0000111111010000
0000111111100000
0000000000100000
0000111111110000
0000000000100000
0000000000000000
0000111111110000
0000111111100000
0000111111110000
0000111111010000
0000000000010000
0000000000000000
0000000000010000
0000000000110000
0000000000010000
0000111111010000
0000111111110000
0000000000010000
0000111111100000
0000000000010000
0000111111010000
0000000000010000
0000000000110000
0000000000010000
0000000000110000
0000000000010000
0000000000110000
0000111111110000
0000000000010000
0000111111110000
0000111111010000
0000111111100000
0000111111110000
0000000000010000
0000111111010000
0000000000000000
0000000000000000
0000000001000000
0000000000000000
0000111111110000
0000111111110000
0000111111000000
0000111111110000
0000111111110000
0000000000100000
0000111111010000
0000000000110000
0000000000000000
0000000000100000
0000000000110000
0000000000100000
0000000000100000
0000111111100000
0000000000010000
0000000000000000
0000000000000000
0000111111010000
0000000000010000
0000000000010000
0000000000000000
0000111111100000
0000000000000000
0000111111110000
0000000000010000
0000111111000000
0000000000000000
0000111111110000
0000111111100000
0000111111110000
0000000000100000
0000111111100000
0000111111010000
0000000000010000
0000000000000000
0000111111010000
0000111111110000
0000000000010000
0000111111100000
0000000000000000
0000111111110000
0000000000010000
0000000000000000
0000000000010000
0000000000010000
0000000000010000
0000000000100000
0000000000100000
0000111111100000
0000000000100000
0000111111100000
0000000000010000
0000111111000000
0000000000000000
0000000000000000
0000111111010000
0000000000010000
0000000000000000
0000000000010000
0000000000000000
0000111111110000
0000111111100000
0000000000000000
0000000000010000
0000111111010000
0000000000010000
0000000000000000
0000000000100000
0000000000100000
0000111111110000
0000000000000000
0000000000000000
0000000000110000
0000111111110000
0000000000000000
0000000000010000
0000111111110000
0000111111100000
0000000000100000
0000000000100000
0000000000000000
0000000000000000
0000000000000000
0000111111110000
0000111111010000
0000111111100000
0000000000010000
0000111111110000
0000000000010000
0000000000010000
0000000000000000
0000000000010000
0000111111110000
0000000000000000
0000000000000000
0000111111110000
0000111111010000
0000111111100000
0000111111110000
0000000000010000
0000111111110000
0000000000000000
0000000000000000
0000000000010000
0000000000000000
0000000000000000
0000000000000000
0000000000110000
0000000000000000
0000000000010000
0000000000010000
0000111111010000
0000111111110000
0000000000010000
0000111111010000
0000000000100000
0000111111100000
0000111111110000
0000000000100000
0000000000000000
0000111111100000
0000111111100000
0000111111000000
0000000000100000
0000000000010000
0000111111110000
0000111111110000
0000000000000000
0000000000000000
0000111111010000
0000000001100000
0000000000010000
0000111111110000
0000000000010000
0000111111110000
0000000000000000
0000111111110000
0000000000000000
0000000000000000
0000111111000000
0000000000100000
0000111111110000
0000111111110000
0000000000010000
0000000000000000
0000111111100000
0000000000100000
0000000000000000
0000000000010000
0000000000100000
0000000000000000
0000111111000000
0000000000010000
0000111111100000
0000000000000000
0000000000100000
0000111111110000
0000111111110000
0000000000010000
0000111111000000
0000111111100000
0000000000100000
0000111111110000
0000000000010000
0000000000000000
0000000000010000
0000111111110000
0000111111110000
0000111111110000
0000000000000000
0000000000010000
0000000000110000
0000000000000000
0000000000010000
0000000000000000
0000000001010000
0000000000010000
0000000000010000
0000000000010000
0000000000010000
0000000000110000
0000000000000000
0000000000000000
0000000000000000
0000000000000000
0000000000000000
0000111111110000
0000000000100000
0000000000100000
0000000000100000
0000111111110000
0000111111110000
0000111111110000
0000111111110000
0000000000000000
0000000000000000
0000000000100000
0000000000000000
0000000000000000
0000000000000000
0000000000110000
0000000000000000
0000000000000000
0000111111110000
0000111111100000
0000000000000000
0000111111100000
0000000000110000
0000111111110000
0000000000000000
0000111111110000
0000111111110000
0000111111110000
0000111111010000
0000000000010000
0000111111110000
0000111111110000
0000000000000000
0000000000000000
0000111111110000
0000111111110000
0000000000100000
0000000000000000
0000000000100000
0000000000000000
0000000000010000
0000000000110000
0000111111010000
0000000000000000
0000000000010000
0000000000000000
0000000000000000
0000000000000000
0000111111110000
0000000000000000
0000000000100000
0000111110110000
0000000000100000
0000000000010000
0000111110110000
0000111111110000
0000000000100000
0000111111100000
0000000000010000
0000111111100000
0000000000000000
0000111111110000
0000000000000000
0000000000000000
0000111111110000
0000111110000000
0000000000000000
0000111111110000
0000111111110000
0000111111100000
0000000000000000
0000000000000000
0000111111110000
0000000000000000
0000000000000000
0000111111110000
0000000000000000
0000000000000000
0000000000000000
0000111111110000
0000111111010000
0000111111110000
0000111111000000
0000000000110000
0000000000010000
0000000000010000
0000000000000000
0000000000000000
0000000000000000
0000000000000000
0000111110110000
0000111111110000
0000000000100000
0000000000010000
0000000000010000
0000111111110000
0000111111100000
0000000000010000
0000000000000000
0000000001000000
0000000000000000
0000000000100000
0000111110110000
0000000000110000
0000000000100000
0000000000000000
0000000000100000
0000111111110000
0000111111010000
0000111110110000
0000111111110000
0000111111100000
0000000000000000
0000000000010000
0000000000100000
0000000000000000
0000000000010000
0000111110110000
0000000000100000
0000000000100000
0000111111100000
0000000000010000
0000000000100000
0000111110010000
0000000000100000
0000000000010000
0000000000000000
0000000000010000
0000000000010000
0000111111100000
0000000000000000
0000000000100000
0000111111100000
0000000000000000
0000000000010000
0000000000100000
0000111111110000
0000000000010000
0000111111110000
0000111111110000
0000111111110000
0000111111010000
0000111111110000
0000111111100000
0000000000000000
0000000000000000
0000000000010000
0000000000100000
0000111111110000
0000111111110000
0000111110100000
0000000000010000
0000111111110000
0000000000000000
0000111111110000
0000111111110000
0000000000000000
0000000000110000
0000000000010000
0000111111110000
0000111111100000
0000111111010000
0000111111000000
0000000000010000
0000111111010000
0000000000000000
0000000000000000
0000000000000000
0000000000000000
0000000001010000
0000111110110000
0000000000000000
0000000000010000
0000111111010000
0000111111110000
0000000000100000
0000000000000000
0000000000000000
0000000000010000
0000000001000000
0000000000010000
0000111111110000
0000111111110000
0000000000000000
0000111111110000
0000000000000000
0000000000000000
0000000000010000
0000000001000000
0000111111110000
0000000000110000
0000111111100000
0000111111110000
0000000000100000
0000000000000000
0000000000010000
0000000000010000
0000111111100000
0000000000000000
0000111111110000
0000000000010000
0000111111110000
0000111111100000
0000000000000000
0000000000000000
0000000000010000
0000111111110000
0000000000110000
0000111111100000
0000111111100000
0000000000110000
0000111111110000
0000000000000000
0000000000000000
0000000000100000
0000000000000000
0000111111110000
0000000000010000
0000000000110000
0000000000000000
0000000000100000
0000111111100000
0000111111110000
0000000000000000
0000111111110000
0000111111110000
0000111111110000
0000000000010000
0000000000100000
0000000000010000
0000000000110000
0000111111100000
0000000001000000
0000000000010000
0000111110110000
0000111111100000
0000000000000000
0000000000100000
0000000000110000
0000111111110000
0000000000000000
0000000000010000
0000000001000000
0000000000000000
0000111111100000
0000000000100000
0000000000110000
0000111111000000
0000000000000000
0000000000000000
0000000000010000
0000000000100000
0000000000010000
0000111111110000
0000111111010000
0000111111110000
0000111111110000
0000000000000000
0000000000100000
0000000000010000
0000000000000000
0000000000110000
0000111110100000
0000000000010000
0000000000000000
0000000000000000
0000111111010000
0000000000000000
0000111111000000
0000000000000000
0000000000100000
0000000001000000
0000000000110000
0000111111110000
0000000000100000
0000111111110000
0000000000110000
0000000000000000
0000111111110000
0000111111110000
0000111110110000
0000111111110000
0000000000000000
0000000000010000
0000000000000000
0000000000010000
0000111110100000
0000111111000000
0000111111110000
0000111111110000
0000111111110000
0000000000010000
0000000000100000
0000000000110000
0000000000010000
0000000000000000
0000000000000000
0000111110110000
0000000000110000
0000000000010000
0000111111110000
0000000000000000
0000111111110000
0000000000000000
0000111111010000
0000000000010000
0000000000100000
0000111110010000
0000000000000000
0000000000000000
0000000000010000
0000000000010000
0000111111110000
0000111111010000
0000111111010000
0000000000000000
0000000000110000
0000000000010000
0000000000000000
0000000000010000
0000000000010000
0000111110110000
0000000000000000
0000000000000000
0000000000010000
0000000000010000
0000111111110000
0000000000000000
0000111111010000
0000000000010000
0000000000000000
0000000000010000
0000000000110000
0000000000010000
0000111111010000
0000111111110000
0000111111110000
0000000000000000
0000111111000000
0000111111110000
0000000000000000
0000000000000000
0000000000000000
0000000000000000
0000111111110000
0000111111100000
0000000001000000
0000000000000000
0000000000110000
0000000000010000
0000111111010000
0000000000000000
0000000000100000
0000111111110000
0000111111110000
0000000001000000
0000000000000000
0000111111110000
0000000001000000
0000111111110000
0000000000110000
0000000000010000
0000111111110000
0000111110110000
0000000000000000
0000000001000000
0000000001010000
0000000000000000
0000000000000000
0000000000000000
0000000000100000
0000000000100000
0000111111110000
0000000000100000
0000000000000000
0000111111010000
0000000000000000
0000111111100000
0000111111110000
0000000001000000
0000000000010000
0000111111110000
0000000000000000
0000111111100000
0000000000000000
0000111111110000
0000111111110000
0000111111110000
0000000000100000
0000000000010000
0000111110110000
0000111111110000
0000000000010000
0000111111100000
0000111111100000
0000111111100000
0000111111100000
0000000000000000
0000000000100000
0000000000000000
0000000000110000
0000000000000000
0000000000010000
0000000000000000
0000000001010000
0000111111110000
0000000000010000
0000000000010000
0000111111000000
0000111111110000
0000000000000000
0000000000100000
0000000000000000
0000000000010000
0000111111000000
0000111111100000
0000111111110000
0000000000000000
0000000000010000
0000000000000000
0000111111110000
0000000000100000
0000000000010000
0000000000000000
0000111111110000
0000111111000000
0000000001000000
0000000000010000
0000000000010000
0000000000010000
0000111111100000
0000111111110000
0000111111100000
0000000000000000
0000000000110000
0000111110110000
0000111111110000
0000000000000000
0000000001000000
0000000000010000
0000111111110000
0000000000000000
0000111111010000
0000111111110000
0000000000110000
0000000000000000
0000111111010000
0000000000000000
0000000000010000
0000000000000000
0000111111110000
0000000000100000
0000000000000000
0000000000100000
0000000000010000
0000111111100000
0000111110110000
0000111111100000
0000111111110000
0000000000000000
0000000000100000
0000000000000000
0000111111100000
0000111111110000
0000000000000000
0000111111110000
0000111111110000
0000111111110000
0000111111110000
0000000000010000
0000000000100000
0000111111110000
0000000000010000
0000000000000000
0000000001000000
0000000000010000
0000000000010000
0000000000000000
0000111111110000
0000000000010000
0000111110110000
0000000000100000
0000000000010000
0000000001000000
0000000000100000
0000111111100000
0000000000000000
0000111111110000
0000000000010000
0000000000100000
0000000000010000
0000000000000000
0000111111010000
0000111111100000
0000000000110000
0000000000000000
0000111111110000
0000000000000000
0000111111110000
0000000000010000
0000111111110000
0000111111110000
0000111111110000
0000111111000000
0000000000100000
0000000000110000
0000000000010000
0000111111010000
0000111111110000
0000000000010000
0000000000010000
0000111111110000
0000000000100000
0000111111110000
0000111111100000
0000000000000000
0000111111100000
0000000000000000
0000111111100000
0000000001010000
0000000000100000
0000111111110000
0000000000000000
0000111111110000
0000111110110000
0000111111110000
0000000000010000
0000000000010000
0000000000100000
0000111111110000
0000000000000000
0000111111100000
0000000000100000
0000000000100000
0000111111000000
0000111111100000
0000111111110000
0000000000100000
0000111111010000
0000000000000000
0000000000000000
0000000000010000
0000111111010000
0000000000000000
0000000000000000
0000111111100000
0000111111000000
0000000000010000
0000111111010000
0000000000100000
0000000000010000
0000000000100000
0000000000100000
0000111111100000
0000000000010000
0000111111110000
0000000000100000
0000111111100000
0000111111010000
0000111111110000
0000111111000000
0000111111010000
0000111111100000
0000111111000000
0000000001010000
0000000000000000
0000111111010000
0000111111110000
0000000000000000
0000111111000000
0000111110110000
0000111111110000
0000000000000000
0000111111100000
0000000000100000
0000000000100000
0000000000100000
0000111111000000
0000000000110000
0000000000100000
0000000000010000
0000000000010000
0000000000100000
0000000000000000
0000111111010000
0000111111110000
0000111111110000
0000111111100000
0000111111110000
0000000000110000
0000000000010000
0000111111110000
0000111111000000
0000111111000000
0000111111010000
0000000000010000
0000000000000000
0000000000000000
0000000000000000
0000000000000000
0000111111100000
0000111111100000
0000111111100000
0000111111100000
0000000000000000
0000000000010000
0000000000000000
0000111111100000
0000000010000000
0000000000100000
0000000000100000
0000111111110000
0000111111110000
0000000000010000
0000111111000000
0000000000100000
0000000000010000
0000111111100000
0000000000010000
0000111111110000
0000111111010000
0000000000000000
0000111111100000
0000111111100000
0000000000010000
0000000000000000
0000000000010000
0000000000000000
0000000000000000
0000111111100000
0000000000110000
0000000001110000
0000111111000000
0000111110100000
0000111111110000
0000111110100000
0000000000100000
0000111111110000
0000000000010000
0000111111110000
0000000000000000
0000111111110000
0000111111010000
0000111111010000
0000000000010000
0000000000000000
0000111111110000
0000111111100000
0000111111100000
0000111111110000
0000111111110000
0000111111100000
0000000000100000
0000000000100000
0000000000000000
0000111111000000
0000111111110000
0000111111110000
0000111111100000
0000000000000000
0000111111010000
0000000000000000
0000111111100000
0000000000100000
0000000000100000
0000111111110000
0000000000100000
0000111111110000
0000111111110000
0000111111110000
0000000000100000
0000000000100000
0000000000010000
0000000000000000
0000000000000000
0000000000010000
0000111111100000
0000000000010000
0000000000000000
0000111111110000
0000000000000000
0000000000100000
0000111111100000
0000000000010000
0000000000000000
0000000000000000
0000111110100000
0000111111110000
0000111111110000
0000000000010000
0000000000100000
0000000001000000
0000111111110000
0000111111000000
0000000000110000
0000000000000000
0000111111100000
0000000000110000
0000000000010000
0000000000000000
0000000000100000
0000111111010000
0000000000010000
0000111111110000
0000111111110000
0000000001010000
0000111111110000
0000111111100000
0000111111110000
0000111111010000
0000000000000000
0000000000010000
0000000000100000
0000111111110000
0000111111110000
0000000000100000
0000111111100000
0000111111110000
0000111111100000
0000000000100000
0000111111100000
0000111111010000
0000000001010000
0000111111110000
0000111111010000
0000111111100000
0000000000100000
0000000000000000
0000000000010000
0000111111110000
0000000000010000
0000000000000000
0000111110100000
0000000000010000
0000000000000000
0000111111110000
0000000000110000
0000000000000000
0000000000100000
0000000000010000
0000000000100000
0000111111010000
0000111111100000
0000111111110000
0000000000010000
0000000000000000
0000000000000000
0000111111010000
0000000000000000
0000111111110000
0000000000010000
0000111111110000
0000000000000000
0000111111110000
0000000000010000
0000000000000000
0000000000010000
0000111111110000
0000000000110000
0000000000010000
0000111111110000
0000111111010000
0000000000010000
0000111111010000
0000000000000000
0000000000010000
0000111111110000
0000111111010000
0000000000000000
0000111111110000
0000111110110000
0000111111010000
0000000000100000
0000111111110000
0000111111100000
0000000000000000
0000111111110000
0000111111110000
0000111111110000
0000111111110000
0000111111110000
0000000000010000
0000000000100000
0000111111010000
0000000001000000
0000111111010000
0000000000010000
0000000000110000
0000000000000000
0000111111110000
0000111110100000
0000000000010000
0000111111100000
0000000000000000
0000000000010000
0000111111110000
0000111111110000
0000111111110000
0000000000000000
0000111111100000
0000000000000000
0000000000010000
0000111111100000
0000000000010000
0000111111010000
0000000000000000
0000000000000000
0000111111100000
0000000000010000
0000111111100000
0000000000100000
0000000000010000
0000000000100000
0000000000100000
0000111111010000
0000111111100000
0000111111100000
0000000000000000
0000111111110000
0000111111110000
0000000000010000
0000111111100000
0000000000110000
0000111111010000
0000111111000000
0000000000000000
0000111111100000
0000111111010000
0000000000100000
0000111110110000
0000111111110000
0000000000010000
0000000000010000
0000000000110000
0000000000000000
0000000000010000
0000000000010000
0000000000000000
0000111111110000
0000000000000000
0000111111100000
0000111111110000
0000111111110000
0000000000100000
0000000000000000
0000000000010000
0000111111010000
0000111111100000
0000111111100000
0000111110100000
0000000000110000
0000111111100000
0000111111100000
0000000000010000
0000000000100000
0000111111100000
0000111111000000
0000000000010000
0000111111100000
0000111111110000
0000000001010000
0000000000100000
0000111110110000
0000111111110000
0000000000010000
0000000000100000
0000111111100000
0000000001000000
0000111111110000
0000111111100000
0000111111110000
0000000001000000
0000000000110000
0000000000100000
0000000000100000
0000111110100000
0000111111010000
0000111111000000
0000000000010000
0000000000100000
0000000000000000
0000111111110000
0000000001010000
0000000000000000
0000000000010000
0000111111010000
0000000001100000
0000111111110000
0000111111110000
0000000000000000
0000000000000000
0000000000100000
0000000000100000
0000000000100000
0000000000010000
0000000000000000
0000111111110000
0000000000010000
0000000000110000
0000000000110000
0000000000000000
0000000000000000
0000111111100000
0000000000110000
0000111111110000
0000000000000000
0000111111100000
0000000000010000
0000000000000000
0000111111010000
0000000000010000
0000111111110000
0000000000100000
0000000000010000
0000000000000000
0000000000100000
0000000000010000
0000111111110000
0000000000110000
0000000000100000
0000111111000000
0000111111100000
0000000000000000
0000000000100000
0000111111100000
0000000000110000
0000000000000000
0000111110110000
0000111111100000
0000000000100000
0000111111100000
0000000000000000
0000111111000000
0000111111100000
0000000000000000
0000000000000000
0000000000010000
0000000001000000
0000111111000000
0000000000010000
0000000000010000
0000000000000000
0000111111110000
0000000000000000
0000000000100000
0000000000010000
0000000001010000
0000111110100000
0000000000000000
0000000000100000
0000111111010000
0000000000010000
0000111111110000
0000000000010000
0000000000000000
0000000000100000
0000000001100000
0000000000010000
0000111111000000
0000111111110000
0000111111110000
0000111111000000
0000000000010000
0000111111110000
0000111111110000
0000111111100000
0000000000010000
0000111110110000
0000111111110000
0000111110110000
0000111111110000
0000000000000000
0000111111110000
0000000000000000
0000000000000000
0000000000100000
0000000000010000
0000000000110000
0000111111010000
0000111111100000
0000111111110000
0000000000000000
0000000000000000
0000000000000000
0000000000100000
0000000000000000
0000111111110000
0000111111110000
0000111101010000
0000000000010000
0000111111110000
0000000000000000
0000000000110000
0000000000100000
0000000000110000
0000111110100000
0000000000010000
0000000000100000
0000000000000000
0000111111110000
0000111111110000
0000000000010000
0000111111110000
0000000000000000
0000000000010000
0000111111100000
0000111101110000
0000000000000000
0000111111110000
0000000000000000
0000111111110000
0000111111110000
0000000000000000
0000111111100000
0000000000000000
0000000001000000
0000111111100000
0000000000000000
0000000000100000
0000000000000000
0000000000010000
0000000000100000
0000111111110000
0000000000010000
0000000000010000
0000000000000000
0000000000000000
0000111111100000
0000000000100000
0000111111100000
0000000000100000
0000111111010000
0000000000010000
0000000000000000
0000000000010000
0000000000110000
0000000001100000
0000000000110000
0000111111100000
0000111111110000
0000111111010000
0000000000000000
0000000000100000
0000000000100000
0000111110000000
0000000000000000
0000111111100000
0000111111100000
0000000001000000
0000111111100000
0000000000100000
0000000000000000
0000111111110000
0000111111010000
0000000001000000
0000000001000000
0000000000010000
0000000000110000
0000000000010000
0000111111110000
0000000000000000
0000000000000000
0000000000000000
0000000000000000
0000000000100000
0000000001100000
0000111111100000
0000111111100000
0000111111110000
0000000000110000
0000111111110000
0000111111110000
0000000000010000
0000000000100000
0000111111110000
0000000000000000
0000000000010000
0000111111100000
0000111111010000
0000111111100000
0000111111100000
0000000000010000
0000000000110000
0000000000000000
0000111101110000
0000111111100000
0000000000000000
0000000000000000
0000111111110000
0000111111110000
0000000000110000
0000000000000000
0000111111010000
0000111111010000
0000000000000000
0000000000000000
0000000001010000
0000000000010000
0000111111110000
0000000000110000
0000111111000000
0000000000010000
0000000000000000
0000000000000000
0000000000000000
0000000000000000
0000000000110000
0000000000010000
0000000000010000
0000000000000000
0000111111110000
0000111111110000
0000000000100000
0000111111100000
0000000000100000
0000111111110000
0000111111010000
0000000000000000
0000000000110000
0000000000100000
0000111111000000
0000111111110000
0000000000100000
0000111111010000
0000000000010000
0000000000000000
0000000000000000
0000000000010000
0000000000010000
0000111111110000
0000000000000000
0000000001010000
0000111111110000
0000000000010000
0000111111010000
0000000000000000
0000000000000000
0000111111100000
0000000000000000
0000111111110000
0000111111100000
0000000000110000
0000111111010000
0000000000000000
0000000000000000
0000111111010000
0000000000000000
0000111111010000
0000000000000000
0000111111110000
0000111111110000
0000111111110000
0000111111100000
0000000000010000
0000000000010000
0000000000000000
0000000000100000
0000000000010000
0000000000000000
0000111111100000
0000111111110000
0000000000000000
0000111111110000
0000000000000000
0000000000000000
0000000000000000
0000111111110000
0000000000100000
0000111111100000
0000000000000000
0000000000100000
0000111111000000
0000000000010000
0000111111100000
0000111111100000
0000000000000000
0000000000110000
0000000000000000
0000000000000000
0000000000010000
0000000000000000
0000000000010000
0000000000010000
0000000000100000
0000000000010000
0000000000010000
0000000000000000
0000111111110000
0000000001000000
0000000000000000
0000111111010000
0000000000100000
0000111111100000
0000000000010000
0000000000100000
0000000000000000
0000000000000000
0000111111100000
0000000000000000
0000000000010000
0000000000010000
0000000000000000
0000111111000000
0000000000010000
0000111111100000
0000111111100000
0000111111100000
0000000000000000
0000000000000000
0000111111110000
0000000000000000
0000111111100000
0000111111100000
0000000000100000
0000000001000000
0000000000000000
0000000000000000
0000111111010000
0000000000010000
0000000000000000
0000000000000000
0000000000000000
0000111111100000
0000000001000000
0000000000110000
0000000000000000
0000111111110000
0000111111100000
0000000000010000
0000000000010000
0000000000000000
0000000000000000
0000111111100000
0000111111100000
0000000000000000
0000000000000000
0000111111110000
0000000000010000
0000111111100000
0000000000000000
0000000000110000
0000000000000000
0000111111100000
0000000000000000
0000111111100000
0000000000010000
0000000001000000
0000111111110000
0000111110110000
0000111111110000
0000111111000000
0000000000100000
0000000000100000
0000111110010000
0000000000000000
0000000000000000
0000111111100000
0000000000100000
0000111111100000
0000000000100000
0000111111110000
0000111111110000
0000000000110000
0000111111110000
0000000000000000
0000000000100000
0000111110110000
0000000000010000
0000000000010000
0000111111000000
0000111110110000
0000111110100000
0000000000100000
0000000000110000
0000000000010000
0000111111100000
0000000000010000
0000000000010000
0000000000010000
0000000000110000
0000000000110000
0000111111110000
0000000000000000
0000111111100000
0000111111010000
0000000000010000
0000000001000000
0000000000110000
0000000000010000
0000111111110000
0000000000000000
0000000000010000
0000111110100000
0000000000000000
0000000000100000
0000111111110000
0000111111110000
0000111111100000
0000111111110000
0000111111110000
0000000000100000
0000000000010000
0000111111010000
0000111111100000
0000000000000000
0000000000100000
0000000000010000
0000111111100000
0000000001010000
0000111111100000
0000111111110000
0000111111110000
0000000000010000
0000111111010000
0000111111010000
0000000000000000
0000111111000000
0000000000000000
0000000000000000
0000000000100000
0000111111110000
0000111110100000
0000000000000000
0000000000100000
0000000000010000
0000000000000000
0000000000000000
0000000000010000
0000000000000000
0000111111100000
0000111111100000
0000000000100000
0000000000000000
0000000000000000
0000000000010000
0000000000000000
0000000000100000
0000000000000000
0000111111110000
0000000000100000
0000111111100000
0000111111100000
0000000000100000
0000000000010000
0000000000010000
0000000000110000
0000111111110000
0000000000000000
0000000000100000
0000000000100000
0000000000100000
0000000000100000
0000000000000000
0000000000100000
0000000000000000
0000000000000000
0000111111110000
0000000000000000
0000000000010000
0000000000100000
0000111111100000
0000111111000000
0000000000010000
0000000000010000
0000000000010000
0000000000100000
0000111111110000
0000000000000000
0000111111110000
0000111111110000
0000111110110000
0000111111110000
0000111110100000
0000000000000000
0000000000000000
0000111111110000
0000000000000000
0000111111110000
0000111111110000
0000111110100000
0000111111110000
0000000000100000
0000000000010000
0000000000100000
0000111111100000
0000000000010000
0000111110010000
0000000001000000
0000000000100000
0000000001000000
0000111110110000
0000000000000000
0000000000000000
0000000000100000
0000111111010000
0000111111110000
0000000000000000
0000000000110000
0000111110110000
0000111111100000
0000111111110000
0000111111010000
0000000000010000
0000111111010000
0000000000010000
0000111111110000
0000111110110000
0000000000010000
0000111111010000
0000000000000000
0000000000000000
0000111111010000
0000000000000000
0000000000110000
0000000000100000
0000111111010000
0000111111100000
0000000000000000
0000111111100000
0000000000010000
0000000000000000
0000000000010000
0000000000100000
0000111111110000
0000111111110000
0000000000100000
0000000000000000
0000000000000000
0000111111110000
0000111111100000
0000000000010000
0000000000100000
0000000001010000
0000000000010000
0000000000100000
0000000000000000
0000000000100000
0000111111110000
0000000000010000
0000000000100000
0000000000100000
0000000000010000
0000000000010000
0000111111110000
0000000001000000
0000000000010000
0000111111010000
0000000000100000
0000111111100000
0000111111110000
0000000001000000
0000000000100000
0000111111110000
0000000000000000
0000000000000000
0000000000110000
0000111111110000
0000000000110000
0000111111110000
0000000001000000
0000111110100000
0000111111110000
0000000000100000
0000000000100000
0000111111110000
0000000000000000
0000000000100000
0000000000100000
0000111110110000
0000000000010000
0000000000000000
0000111111100000
0000000000000000
0000000000010000
0000111111110000
0000000000000000
0000000000000000
0000111111110000
0000000000010000
0000000000110000
0000000000110000
0000000001010000
0000000000000000
0000000000100000
0000000000000000
0000000000000000
0000000000010000
0000111111110000
0000000000010000
0000111111100000
0000000000010000
0000000000010000
0000111111110000
0000111111110000
0000000000010000
0000111111110000
0000000000100000
0000000000100000
0000000000000000
0000000000000000
0000111111100000
0000111111110000
0000111111100000
0000111111100000
0000000000010000
0000111111110000
0000111111000000
0000111111100000
0000000000100000
0000111110100000
0000000001100000
0000111111000000
0000111111010000
0000000000010000
0000111111010000
0000111111100000
0000000000110000
0000000000100000
0000111111100000
0000000000100000
0000000000010000
0000111111110000
0000000000100000
0000000000010000
0000111111110000
0000000000110000
0000111111110000
0000111110010000
0000000000000000
0000000000110000
0000111111100000
0000000011000000
0000000000000000
0000000000000000
0000000000010000
0000000000100000
0000000000100000
0000111111100000
0000000000000000
0000000000010000
0000000000010000
0000000000010000
0000111111010000
0000000000110000
0000000000010000
0000111111110000
0000000000010000
0000000000100000
0000000000000000
0000111111000000
0000111111100000
0000111111110000
0000111111110000
0000111111100000
0000111111100000
0000000000100000
0000000000010000
0000000000100000
0000000000110000
0000111111100000
0000000000000000
0000111111110000
0000111111010000
0000000000100000
0000000000000000
0000111111010000
0000000000000000
0000000000000000
0000000000000000
0000000000110000
0000000000110000
0000000000010000
0000000000010000
0000111111110000
0000000000010000
0000111111100000
0000000000100000
0000111110110000
0000000001000000
0000111111110000
0000000000010000
0000000001000000
0000000000100000
0000111111100000
0000000000010000
0000111111110000
0000111111100000
0000111111000000
0000111111100000
0000000000100000
0000111111010000
0000000000000000
0000000000110000
0000000000000000
0000000000000000
0000111111110000
0000111110110000
0000000000010000
0000111111000000
0000000000100000
0000000000010000
0000111111100000
0000000000000000
0000000000010000
0000000000000000
0000000001000000
0000000000010000
0000111111100000
0000111111100000
0000000000000000
0000000000010000
0000000000100000
0000000000000000
0000111111110000
0000111111110000
0000111111010000
0000000000010000
0000000000100000
0000111111010000
0000000000000000
0000000000100000
0000000000010000
0000111111110000
0000000000010000
0000111111100000
0000111111110000
0000000000000000
0000000000100000
0000000010000000
0000000000000000
0000111110110000
0000000000100000
0000111110110000
0000000000000000
0000111111110000
0000000000010000
0000000000010000
0000000000000000
0000000001010000
0000000000110000
0000000000000000
0000000000000000
0000000000100000
0000111111100000
0000111111100000
0000000000110000
0000000000100000
0000000000010000
0000000000010000
0000000000010000
0000000000100000
0000111111110000
0000000000000000
0000000001000000
0000111111100000
0000111111100000
0000000000000000
0000000001000000
0000000000010000
0000000010000000
0000111111110000
0000000000000000
0000000000010000
0000111111110000
0000111111100000
0000000000000000
0000000000000000
0000000001010000
0000000000010000
0000111111110000
0000111111100000
0000000000010000
0000000000010000
0000111111100000
0000000000000000
0000000000010000
0000111111100000
0000111111010000
0000111111110000
0000000000100000
0000111111100000
0000000000100000
0000000000010000
0000111111100000
0000000000010000
0000111111100000
0000000001110000
0000000000000000
0000000000010000
0000000000010000
0000111111100000
0000000000110000
0000111111100000
0000000000010000
0000000000100000
0000000000010000
0000000000000000
0000000000010000
0000000000010000
0000000000010000
0000000000000000
0000000000010000
0000111111100000
0000000000110000
0000000000000000
0000000000010000
0000111111110000
0000000000000000
0000000000010000
0000111111110000
0000000000000000
0000000000010000
0000111111110000
0000111111110000
0000000000010000
0000111110110000
0000111111100000
0000000000100000
0000111110100000
0000000000000000
0000000000010000
0000000000010000
0000111111110000
0000000000100000
0000000000010000
0000000000010000
0000111111010000
0000000000000000
0000000000010000
0000111110000000
0000000000000000
0000000000010000
0000000000000000
0000111111110000
0000000000010000
0000111111110000
0000000000000000
0000111111000000
0000111111110000
0000111111100000
0000000000010000
0000111111110000
0000000000110000
0000000000010000
0000000000000000
0000000000010000
0000111110110000
0000000000010000
0000111111110000
0000111111110000
0000000000100000
0000111111110000
0000111111010000
0000111111110000
0000000000010000
0000000000010000
0000000001010000
0000111111100000
0000111111010000
0000000000110000
0000000000000000
0000111111110000
0000000000100000
0000000000100000
0000111111100000
0000000000100000
0000111111010000
0000000000010000
0000000000110000
0000111111110000
0000000001010000
0000111111110000
0000111110100000
0000000000010000
0000000000110000
0000000000000000
0000111111100000
0000111111110000
0000000000100000
0000111111100000
0000000000000000
0000111111100000
0000000000100000
0000000000010000
0000111111100000
0000111111110000
0000111111110000
0000000000000000
0000111111100000
0000000000010000
0000000000010000
0000111111100000
0000000000000000
0000111111110000
0000111111100000
0000000000110000
0000000000000000
0000000000010000
0000000000000000
0000000000000000
0000111111100000
0000000000000000
0000111111100000
0000111111110000
0000000000100000
0000111111110000
0000000000000000
0000000000000000
0000000000100000
0000111111110000
0000000000000000
0000111111010000
0000000000000000
0000000000000000
0000111110110000
0000000000000000
0000000000000000
0000111111100000
0000111111100000
0000000000000000
0000111110110000
0000000000010000
0000000000100000
0000000000110000
0000000000110000
0000111111000000
0000111111110000
0000000000100000
0000000000000000
0000000000010000
0000000000010000
0000000000100000
0000000000010000
0000000000110000
0000111111100000
0000000000000000
0000000000010000
0000111111110000
0000111111010000
0000000000100000
0000111111110000
0000000000000000
0000111111110000
0000111111100000
0000000000000000
0000111111110000
0000111111010000
0000000000000000
0000111111000000
0000111111110000
0000000000010000
0000111111110000
0000000000100000
0000111111100000
0000000000100000
0000000000010000
0000000000100000
0000111111110000
0000111111110000
0000111111110000
0000111111110000
0000111110110000
0000111111100000
0000000000010000
0000000000000000
0000111110110000
0000111111110000
0000111111100000
0000111111110000
0000000000000000
0000000001010000
0000111111110000
0000111111110000
0000111111010000
0000111111100000
0000111111010000
0000111111010000
0000111111100000
0000111111010000
0000000000000000
0000000000100000
0000111111010000
0000111111100000
0000000000000000
0000111110000000
0000000000000000
0000000000010000
0000000000010000
0000000000110000
0000111111110000
0000000000100000
0000111111110000
0000111111110000
0000000000010000
0000111111110000
0000000000010000
0000000000010000
0000111111100000
0000111111010000
0000000000100000
0000111111110000
0000000001010000
0000111111110000
0000111111010000
0000000000000000
0000000000100000
0000000000000000
0000111111110000
0000111111110000
0000000000000000
0000111111010000
0000000000100000
0000111111100000
0000111110100000
0000000000010000
0000111110000000
0000000000000000
0000000000010000
0000111111010000
0000111111100000
0000111111100000
0000000000010000
0000111111100000
0000111111000000
0000000000100000
0000000000100000
0000111111110000
0000111111010000
0000111111100000
0000000000000000
0000111111100000
0000111111000000
0000000000000000
0000000000010000
0000000000010000
0000111111110000
0000000000000000
0000111111110000
0000000000010000
0000000000010000
0000111111110000
0000000000000000
0000111111000000
0000000000010000
0000000000000000
0000000000000000
0000000000110000
0000000000000000
0000000000110000
0000000000100000
0000000000000000
0000000000000000
0000000000000000
0000000000000000
0000111111110000
0000000000000000
0000000000010000
0000000000100000
0000111111110000
0000000000000000
0000000000000000
0000111111010000
0000000000110000
0000000000010000
0000000000010000
0000000000010000
0000111111100000
0000000000010000
0000111111100000
0000000000100000
0000111111010000
0000000000100000
0000111111010000
0000111111010000
0000000001010000
0000000000000000
0000111111010000
0000000000000000
0000111111100000
0000111111100000
0000111111010000
0000111111110000
0000000000000000
0000000000000000
0000111111110000
0000000001100000
0000111111100000
0000000000010000
0000000000100000
0000000000000000
0000000000010000
0000000000110000
0000111111110000
0000000000100000
0000000000010000
0000000000100000
0000000000110000
0000111111100000
0000000000000000
0000000000010000
0000111111110000
0000111110110000
0000000001000000
0000000000000000
0000111111000000
0000000000000000
0000111111100000
0000111111110000
0000111111000000
0000000000010000
0000000000100000
0000111111100000
0000111111100000
0000000000010000
0000111111100000
0000111111110000
0000000000010000
0000111111110000
0000000000100000
0000111110110000
0000111111100000
0000111111110000
0000000000100000
0000000000010000
0000111111110000
0000000000000000
0000000000000000
0000000000100000
0000000000000000
0000000000110000
0000111111110000
0000000000100000
0000111111100000
0000000000000000
0000111111000000
0000000000000000
0000000000100000
0000000000000000
0000111111000000
0000000000010000
0000111111110000
0000111111010000
0000000000010000
0000000000100000
0000000000010000
0000000000010000
0000000000000000
0000111111100000
0000000000000000
0000111111100000
0000000000000000
0000111111010000
0000000000010000
0000000000000000
0000000000110000
0000111111100000
0000111111110000
0000111111110000
0000000001000000
0000000000010000
0000000001010000
0000000000000000
0000111111100000
0000111111010000
0000000000010000
0000000000000000
0000000000010000
0000111111110000
0000111111100000
0000000000000000
0000000001010000
0000000000100000
0000000000000000
0000000000010000
0000111110110000
0000000000100000
0000111111000000
0000111111010000
0000000000100000
0000000001000000
0000000000110000
0000111111110000
0000000001000000
0000000000000000
0000000000100000
0000111111100000
0000000000000000
0000111111100000
0000000000000000
0000111111100000
0000000000100000
0000111111110000
0000000000000000
0000000000000000
0000000000010000
0000000000000000
0000000000110000
0000000000000000
0000111110110000
0000111111010000
0000111111010000
0000000000010000
0000000000010000
0000111111100000
0000000000100000
0000000000110000
0000000000110000
0000111111110000
0000111111000000
0000000000100000
0000111111110000
0000111111100000
0000000000000000
0000000001000000
0000000000010000
0000111111100000
0000111111110000
0000111111110000
0000000000000000
0000111111110000
0000111111010000
0000000001000000
0000111111100000
0000111111110000
0000111111110000
0000000000000000
0000000000110000
0000111111110000
0000000000110000
0000000000110000
0000111111010000
0000000000010000
0000111111100000
0000000000000000
0000111111110000
0000111111100000
0000000000100000
0000000000010000
0000111110110000
0000000000010000
0000111111010000
0000000000010000
0000000001010000
0000111111010000
0000111110110000
0000000000000000
0000111110110000
0000111111110000
0000000000000000
0000111111110000
0000000000000000
0000000000010000
0000111111110000
0000000000100000
0000111111000000
0000000000110000
0000000000110000
0000111111010000
0000111111110000
0000000000010000
0000000000100000
0000000000010000
0000111111100000
0000000000010000
0000000000000000
0000111111100000
0000111111000000
0000111111010000
0000000000010000
0000000000110000
0000000000010000
0000111111010000
0000000000000000
0000000000000000
0000111111110000
0000000001000000
0000000000000000
0000000000010000
0000000000110000
0000000000100000
0000000000000000
0000000000000000
0000000000100000
0000111111110000
0000000000100000
0000000000010000
0000000000000000
0000000000000000
0000111111000000
0000111111110000
0000000000010000
0000000000010000
0000111111000000
0000000000100000
0000000000100000
0000111111100000
0000000000010000
0000000000000000
0000000000100000
0000111111110000
0000000000010000
0000000000010000
0000000000100000
0000111111010000
0000000001010000
0000000000100000
0000111111100000
0000111111100000
0000111111100000
0000111111110000
0000111111010000
0000000000000000
0000000000000000
0000000000010000
0000111111100000
0000000000000000
0000000000000000
0000000000000000
0000111111100000
0000000000010000
0000111111110000
0000111111100000
0000000001000000
0000000000010000
0000000000000000
0000000000000000
0000000000100000
0000000001100000
0000000000000000
0000000000110000
0000000000000000
0000000000110000
0000000000100000
0000000000000000
0000000000010000
0000000000010000
0000000000000000
0000000000100000
0000000000100000
0000111111100000
0000111111110000
0000111111110000
0000111111100000
0000000000100000
0000000000010000
0000000000110000
0000000000000000
0000000000010000
0000000000100000
0000000000010000
0000000000000000
0000111111100000
0000000000010000
0000111111100000
0000111111010000
0000000000100000
0000000000110000
0000000000010000
0000000000100000
0000000000010000
0000000000010000
