0000000000001100
1111111111110101
0000000000001100
0000000000001100
0000000000001100
0000000000001100
0000000000001100
1111111111110100
0000000000001100
0000000000001100
0000000000001100
0000000000001100
0000000000001100
0000000000001100
0000000000000100
0000000000001100
0000000000001100
0000000000001100
0000000000001100
0000000000001100
0000000000001100
0000000000001100
0000000000001100
0000000000001100
0000000000001100
0000000000001100
0000000000001011
0000000000001100
0000000000001100
0000000000001100
0000000000001100
0000000000001000
0000000000001100
0000000000001100
0000000000001100
0000000000001100
0000000000001100
0000000000001100
0000000000001100
0000000000001100
0000000000000001
0000000000001100
0000000000001100
0000000000001100
0000000000001100
0000000000001100
0000000000001100
1111111111111011
0000000000001100
0000000000001100
1111111111111001
1111111111111000
0000000000001100
0000000000001100
0000000000001100
0000000000001100
0000000000001100
1111111111111101
0000000000001100
0000000000000100
0000000000001100
0000000000001100
0000000000001100
0000000000001100
0000000000001100
0000000000001100
0000000000001100
0000000000001100
0000000000001100
0000000000001100
0000000000001100
0000000000001100
0000000000001100
1111111111110100
0000000000001011
0000000000001100
0000000000001100
0000000000001100
0000000000001100
0000000000001100
1111111111111110
0000000000001100
0000000000001100
0000000000001100
0000000000001100
0000000000001100
0000000000001011
0000000000001100
0000000000001100
0000000000001100
0000000000001011
0000000000001100
0000000000001100
0000000000001100
0000000000001100
0000000000001100
0000000000000011
1111111111111001
0000000000001100
0000000000001100
0000000000001100
0000000000001100
0000000000001100
0000000000001100
0000000000001100
0000000000001100
0000000000001100
0000000000001100
0000000000001100
0000000000001100
0000000000001100
0000000000001100
0000000000001100
0000000000001100
0000000000001100
0000000000001100
0000000000001011
0000000000001100
0000000000001100
0000000000001100
0000000000001100
0000000000001100
0000000000001100
0000000000000110
0000000000001100
0000000000001100
0000000000001011
0000000000001100
