0000011001100110
1111100110011010
1111100110011010
0000011001100110
1111100110011010
0000011001100110
1111100110011010
0000011001100110
1111100110011010
1111100110011010
1111100110011010
1111100110011010
1111100110011010
1111100110011010
1111100110011100
1111100110011010
1111100110011010
1111100110011010
0000011001100110
0000011001100110
0000011001100110
0000011001100110
0000011001100110
1111100110011010
1111100110011010
0000000101010010
0000011001100110
0000011001100110
0000011001100110
1111100110011010
1111100110011010
0000011001100110
0000011000110110
1111100110011010
0000011001100110
1111100110011010
1111100110011010
0000011001100110
0000011001010111
0000011001100110
1111100110011010
1111100110011010
0000011001100110
0000011001100110
0000011001100110
1111100110011010
1111100110011010
1111100110011010
0000011001100110
1111100110011010
1111100110011010
0000011001010100
1111100110011010
1111100110011010
1111100110011010
0000011001100110
0000011001100110
0000011001011000
1111100110011010
1111100110011010
1111100110011010
0000011001100110
1111100110011010
0000001010010111
0000011001100110
1111101010111001
0000011001100110
1111100110011010
0000011001100110
0000011001100110
1111111010111100
0000011001100110
0000011001100110
0000011001100101
1111100110011010
1111100110011010
1111100110011101
0000011001100110
0000011001100110
1111100110011010
1111100110011010
1111100110011010
0000011001100110
1111100110011111
1111100110011010
0000011001100110
1111100110011010
0000011001100110
1111100110011101
0000011001100110
0000011001100110
1111100110011010
1111100110011010
0000011001100001
1111100110011010
0000011001100110
0000011001100110
0000001010000010
0000011001100110
0000011001100110
0000011001100110
1111100110011010
1111101000000011
1111100110101110
1111100110011010
0000011001100110
0000011001100110
1111100110011010
1111100110011010
1111100110011010
1111101101000001
0000011001100110
1111100111000110
1111100110011010
0000011001100110
0000011001100110
1111100110011010
0000011001100110
0000011001100110
1111100110011010
0000011001100110
0000011001100110
1111100110011010
1111100110011010
1111100110011010
0000011001100110
1111100110011010
1111111111110100
1111100110011010
1111110011010000
1111100110011010
1111111010001100
0000011001100110
1111100110011010
0000010011000001
1111100110011010
0000011001100110
0000011001100001
1111100110011010
0000011001100110
1111100110011010
0000011001100110
1111100110011011
0000011001100110
0000011001100110
0000011001100110
1111100110011010
1111100110011010
0000011001100110
1111100110011010
1111100110011010
0000011001100110
1111100110011010
1111100110011010
1111100110011010
0000011001100110
0000011001100101
1111100110011010
0000011001100110
0000010000011111
0000011001100110
0000010100000010
1111100110011010
0000011001100110
0000011001100110
1111100110011010
0000001110110101
1111100110011010
1111100110011010
0000001011011110
1111100110011010
0000011001100110
0000011001100110
1111100110011010
1111100110011010
0000011001100110
0000011001100110
1111100110011010
1111110101010101
0000011001100110
0000011001100110
0000011001100110
0000011001100110
1111100110011010
1111100110011010
1111100110011010
1111100110011010
0000011001100110
0000001000011101
1111100110011010
1111100110011010
0000011001100110
1111100110011010
0000010011111101
1111100110011010
1111100110011010
0000011001100110
0000011001100110
0000011001100110
1111100110011010
0000011001100110
1111100110011010
1111100110011010
0000011001100110
0000011001100110
0000011001100110
1111100110011010
1111100110011010
1111100110011010
0000011001100110
0000011001100110
1111100110011010
0000011001100110
1111100110011010
0000011001100110
0000011001100110
1111100110011010
0000011001100110
0000011001100110
1111100110011010
1111100110011010
1111100110011010
0000011001100110
1111100110011010
1111100110011010
0000010111010000
0000011001100110
1111100110011010
1111100110011010
1111100110011010
0000010100001110
0000011001100110
1111100110011010
0000011001100110
0000011001100110
1111100110011010
1111100110011010
0000011001100110
0000011001100110
1111100110011010
1111100110011010
1111100110011010
1111100110011010
1111100110011010
1111100110011010
1111100110011010
1111100110011010
1111100110011010
0000011001100110
1111100110011010
0000011001100110
0000011001100110
0000011001100110
0000011001100110
0000011001100110
0000011001100110
1111101011001000
0000001101000111
1111100110100000
0000011001100110
0000011001100110
0000011001100110
0000011001100110
1111100110011010
0000011001100110
0000011001100110
1111100110111100
0000011001100110
0000011001100110
1111100110011010
0000011001100110
0000011001100110
0000011001100110
1111100110011010
1111100110011010
0000011001100110
1111100110011010
0000011001100110
1111111111111001
0000011001100110
1111110111010100
1111100110011110
1111100110011010
1111100111000111
0000011001001110
0000011001001110
1111100110011010
1111110001001011
1111100110011010
1111101000111110
1111100110011010
1111100110011011
0000011000100001
1111100110011010
0000010010110011
1111111111111011
1111100110011011
0000011000101010
0000010110101101
0000011000011111
1111100110011010
0000011001010111
0000011001001010
0000011001001001
0000011000010000
0000011001100110
1111100110011010
1111100110011010
1111100110011111
1111100110011010
1111100110011010
1111100110011010
1111100110011010
1111100110011010
1111100110011010
0000011000110001
0000011000111000
0000010111111001
0000011001100101
0000011001100110
