1001010101110101
0011001011110011
0101000010110001
0101110110010100
0101001010000110
1001010110001001
1010100101110000
0011100110100000
1100001001011000
0000000110101000
1011111110001111
0000110110010001
0100011111101100
1110100101111001
1100010100111001
1000111100111010
1110111011000011
1000111010011011
1101011101110101
0100110000001100
1010010010001101
0010001111001110
0011001010100111
0001100110000000
0000011010111001
1000100001100110
1010011010001011
1111111110111100
0110101001111110
0101100111000010
0111110110011100
0010110001101010
0001111100001110
0001000010011110
0101100101001011
1101110100110010
1111000011101111
0111010101101110
0101010001100110
0110111100001100
1100100010000111
0110110110000001
0101111001001000
1100011000101000
1101110101111111
1000010110111010
1000100001001101
1001111000110011
0111110001000110
0110010100111101
1111001111011011
1111100010001111
0000100001000011
1010111001111101
1101011010010010
0001111110001010
1010101000110100
1110100101100110
1101000100001110
0111001101011110
1101101010100001
0011101110000010
1100001101001111
0100101010001011
1000000111100110
0100111000101001
1010011100110100
0111101010010111
1001001010100011
1110010011100000
1001000010001100
0110101000000110
0010111110110100
0100101011100010
0110011001001100
0000110000111010
0110000010111111
0111100000100101
1111001110000110
1101011110000011
0100100011000001
0011010100011100
1000011100011111
1111110000000100
1010010001011111
0010101011001100
0101101010011000
1101001001011110
1011010100100010
0100111111011111
1011010111000111
1111010001100110
1000001100000000
0011000110010100
1110001101101100
1101111100010111
0011101100100001
0110000011111100
0100011110000100
0001110110111111
0010011110100000
0000100010100000
1110111010001101
0011011000101110
1100000011010111
1001001011101110
0001010001100000
0110100100001111
1100011001101110
0011011101001101
1011000001101010
0001000101010110
0100010000011100
1001010110100010
1011011010100000
0010101011110011
0110100000001011
0011101010100111
1111011101100011
0001111000011111
1001100101010010
0111001101000100
1111100000100100
0001100001100011
0110011101000011
1010001001001010
0010110111011100
0101111000101111
1011110001111001
0000000001001000
1011111101000001
1011101100000010
0001110111101001
0101010001101000
1110000101100100
0101010011011010
0011010110101100
0001001010111110
1000101110000100
1010110011101011
1000100011000010
0000011111100101
1001111111110001
0110001110011100
1010011111000110
1001001110100101
1010110111110011
0111000011110000
0111011110100100
0010010111000011
0001100111001100
1111010001011111
0101101101110000
0010001000111000
0100000000001100
0111001100110100
0011111100001011
1101101110100010
1011110000110111
1111101001001111
0101010010111010
0100011010100010
1110101111000100
1100000100101101
1000100010111010
1110001100101110
1011011011010100
0101001100100110
1111010010101111
0100101000001100
0001001001000011
0010110001101010
1101111000110010
0000110000011001
1110101100011001
1000001011001101
0111011101100000
1001010101101001
1110010111001010
0010000001010010
0011100010111011
0101001011011000
1101110110011000
1101000010011111
0110100101111010
1111101100110101
0010000111111011
1011110111010101
0100110111100110
1011100010111100
0101000011100000
1100111010000001
1010010001111011
1000010001110111
0011000101110001
0101011100011101
1011010111101110
1010100001010010
1001001111101110
1111010100001100
1010011000010101
0111011111100111
0000001000001010
0100000001100010
0001010010010110
0101001101110011
0010011001011111
1111001011011100
0110010111111001
0011100011101010
1110110101110100
1001011011010110
1010100110110000
0111101010111100
1000011010100100
1110010010001111
1101000110010100
1100010010000101
0111101101100100
1100010100100000
0100001000011000
0000000001111110
1111101110010000
0001000101010101
0011101101010110
0000010011000000
1011010110001100
0001111111111010
1010100000110001
0111000000000111
1101100100011100
0100010010111001
1011100001010010
1101011001111001
1001100010010111
1011101100001000
0000101001000010
0111101010011100
0001100110110111
1111100100100001
1001001001101110
1110001110000001
0010010011001000
1000100111111110
1100011101011110
0111001110110000
1001011010011111
1011100001101010
1101010111101010
1111101001000100
1101011111010000
0010011011111010
0011000001001011
0000100011000010
0011011101001100
0110110011011101
0100011000010101
1011000000101111
0000001100010011
0111011101001010
0101101011100000
1010001010000110
0011011111111001
1000000111100101
0001011101111011
0110100111011110
1111100011100100
0000100010101100
0000101101000100
1010010001101011
0011101110011100
0111111010110111
0001010101110100
0011101100110101
1011001000010011
1111101011110000
1000010100000011
1011000001011110
0110100111011101
0111000011000101
0101001010010110
0010011111011001
0110110001110110
0011010110011101
0111001001111010
0000011101010000
0111111101101011
0111000010100110
0010110110011000
1110010111000100
1000011101001100
1110110100110111
0011010111101111
1110010101001000
1011000111000001
0101101011001100
0100000101101100
0111100000111101
1001110110100010
1011010011001001
1010001111001110
1110010001001111
0010010110101101
1001110101101110
1100101100001110
1001001001110011
0111000010100100
0111011010100110
1101001111101001
1011000001100001
0101000110010101
1110111111001111
0111000100010110
0100000100010110
0110011011111101
0110110011100110
1100101110001111
1101001011101010
1011010001000110
0011000100100101
1100101110011101
0011111001110001
0001111111010111
1011010010101010
1111011101000111
1101000100001010
1000010010111010
1001100000101100
0000011111010111
0010010100001000
1010010010011111
0101001011100111
1011001011100010
0001000011011110
0001010110110000
1111000100101001
1001011111011001
1100110001100101
1010011001010001
1000110110011001
0110111100001000
1111001010101011
1101110011111000
1010001000001010
1101111110000011
0011001010001110
1100111101000111
0001100001000000
0000000010100011
0011010101100100
1111110001100000
0110100000000101
1000011111101000
0001001111111110
0000101101101101
0001000100110010
1000110110011101
0110000011010110
0001111000011000
0111010000010101
1000101101101111
1111110010111010
1000000111100011
0110000110110111
0010101100111101
0100010110111111
1011011011001001
1010100000000100
1100100011111110
0000101101011011
1111101100100010
0010000001111010
1000001011000110
0010010001001100
0101111011100010
0100111111111110
0101111010001001
0010001000000010
0111010111111111
1001000010000010
1000111100110001
1010110011000100
1010000100000001
1010110000111000
0011100000001011
0010110000110001
1000111011110011
1100001010111111
1000000110011100
0011000111001000
1001100101100100
1111101101100010
0111010001011010
0111001000010101
0101010000010111
1001001110010000
1111000001001001
0101001011001001
1010010110100001
0101000101100011
1000111010010111
1101101101011110
0110010001101110
1000000101111111
0010101101110100
0010010011010010
1100010100010001
1010111100111000
1000010011100100
1110101110111011
1000101110100001
1100101010110011
0111101010101100
1111101100000000
0101101111111101
0001100001110110
0100101101101011
1101101110000000
1011010111011101
0001011101100101
0100110110011011
1101101011000101
1011110111100101
0001111111110101
0111110110100010
1000011100001011
0110111011111001
1010010100011011
0100000001000010
0110001001001101
1101111001010000
0000100010110101
1011001100001010
1100111100010100
1011011101110011
0010110110000111
1111001100111011
1010101100110101
0001011100111110
1110011100010010
1110110110011101
0100011011111010
0001100010000110
0000111010100011
0011000001100110
1001011110101110
0110001011011110
1110101101011010
1101110010000100
0001011011010000
1100011011011111
1110010111001110
0011000000000100
0011010010000111
1110101011001100
0101001101010101
0100101101110101
1000011101110110
1110011011011110
1100010110111011
0000010101010011
0000110111011101
1100011111101100
1011101000000010
0111001101101110
0110111011000101
0010110101001011
0000011010110001
1001101001011000
1110110010010000
0000010010001100
1000111010011010
1010011011111010
0000110100101001
0001101001111111
0101111110101101
1110001000111100
0111011000010100
1011111111100101
0110001011111011
0001111110011110
0101100111001011
0100101101011111
1000011101011011
1001110000100101
0011000111000011
0110000111101010
0100100000101000
0110010010101010
0110100011011011
1001001111010101
0111010011010001
1100110010010100
1000010010110111
1001100100110100
1001100000000101
0011010010100111
0001011010010101
0000110101110110
0011011100001010
0010111110000111
1000000010100011
0001010111110101
0011001110100011
1010101101000010
1111000010100110
0111001101100000
0010011100001000
1111110111000111
0010011001001010
0011000101110000
1111011101011001
1100011100001010
0011101100111111
0110111111111111
1111100101100110
1111100001001000
0010100001101010
0010011000010000
0110011011101001
0001110001011111
0010001011100001
1010111000111010
1001001110000101
1110101011010110
0100010010110100
1001001110010010
0011100001010011
1001101000011110
0001100101011110
1010110011000110
1010111101111010
1111011100110110
0110011001011100
0100110100000010
0000000111110000
1010101000010010
0000011101101000
1011011001011111
1010010100011011
1000010110000100
0100101000010110
1001000011011111
1100110001100001
0011101101010000
0111011101011010
0100011010011000
1111011101111001
0110110110000100
1101110100000101
1011100001110001
0010011001011000
1001101011100101
0010001010111111
0101110011010001
1110101000101011
1101010000011010
0000101011100000
0100010110010110
1010100110000001
1000001110110011
0011011000100011
0001101011100011
1111001000100000
0001011001010001
1011000100010111
0001100111000011
1100011101000101
0011100001001110
0011111001010110
0110010111010001
0010101110110110
0001111011111001
0000010001111111
1111011011010110
1000110010100100
1110000001000101
0100010011010110
1101010101101101
0000101100010000
0010011010001011
1101101010000110
1001000111111011
0100010001011100
0110111010110011
0110000101111101
1100100110001011
0111110000111110
0111111001101101
0101100011111111
0111100011101000
1110001111100111
1010010110101100
0110001110100010
0110111011111011
1001100010011000
1000100000000011
1100111000110000
0101110100010110
1000000110101111
1111000011011101
0010011100011011
0110110000111101
0101111000001111
0010000000100110
1000011011001010
1101000010000111
0001000000111001
1101010011010011
1010111100111100
0011100001111111
0101010011000110
1001001101101001
0000011010110100
1001111000101011
0011001011110101
0100000001111011
0001111101001110
1011110111010001
1101111011100110
0010001100000001
0001101100000110
1011101110010010
0001101011010001
1010000000111000
1001101111110010
1010000010110000
0011111001111000
0010101011111010
1101010101110100
1011000101100110
0101111001010101
1100110011010000
1110000000100110
0000110011100000
0111000001101110
1000011101011101
0111111011010011
1001001111101000
0101010110001001
1000100010000111
0000111111011001
1100110011110011
0101011011001000
0011111000110110
0101001100001110
0110000000101010
0011100110110010
0110110011001101
1000110110011101
1010011010011100
1001010010000101
0001000101001100
0111000001111011
1001011000101001
1000111011110100
0010001110100110
1011110011101010
0110010000101111
0010010001110101
0001101111100101
0010000101110000
1101110001010111
0010011101110101
1101010111011110
0000110000001010
1011010000011001
1101101010111000
0001110011000110
1010010000111111
0001110010000111
0010111100001011
1000110010001110
0000011010101110
0000111000000111
0110101100000101
0100011001100011
0100111000101110
1110101111010010
1001111101010000
1000011100110111
1000001010110110
1110011111000111
1101011001100100
0101101111111011
0011110001000111
0011111101001000
0010001100110011
1101100000011111
1011110110001010
1110110000110111
1010111100010111
0011101000011110
1101011110010001
0000110100010101
0011010010110001
0100100000001111
1000001111111010
0110110110110101
1000000111100011
0011101100010110
1010011111010010
1001001001010010
1111100100101110
1000100100011000
0011011100011011
0000011010100110
1000110101100010
0001111110111110
0011000010000110
0101111010000100
0101101111011000
1001101011110101
1010000010110010
0100110101011000
0110101100110110
1001001010011001
0101001111101010
1101101001000011
1111111001110000
1010011000001100
1001110000111010
0000010011011110
0011100100000000
0100100011101000
0101010110111111
1001110001100001
0111110101000001
0110010010000010
1111011000010101
1101100000000100
1010101011001011
1101010001110111
1001011000000000
0010000101001111
1101110000000110
0100000010100111
1101110000011111
1001011111001101
0001001110111100
0001011011010101
0010101011101011
0000100000101000
0011100101100010
0100011001000101
1011010111000100
0100011100000010
1000101100100100
0100110011000000
0100000111011111
1101011101100001
1100001001011101
0000011011111100
1110000111101100
1100010111111010
0001010111100011
0000011010100100
1101001001100001
1101000110001011
0111000100101110
0110001101111000
1011010011010101
0001101101000101
1001001000110000
1101110101111100
1011011011011100
1011101001011101
0000001100110010
1110100000111110
0001101110011011
0000101100111001
1010110010100110
0110101001010100
1100101000001001
0011111100110010
0101011101110111
1111100100110001
0010010110001101
1101110000011011
1111010010010000
0101001000011011
0110110001001101
0001100001011100
0000100111001010
0011110011011010
1001010001100111
1010101111000110
0011110110100000
0000000000011100
1101010110100010
1000100000101010
0101010100100011
0100011100111000
0100010100110110
0010000100011010
0001001011111101
1110000100001001
1111011011000011
0011001011001001
1100001101110010
0011110011101101
1101001111101011
1100001011100011
0001001110110001
0101100010100010
1111000001100101
0101100100100100
0011001001010100
0000000101101101
0011011110100010
0111101101111110
1001100101010101
0111011101001110
0110100100000110
1011001100000010
1010110011111011
1011110011010010
0001111010011001
1100100000110111
0011100100001100
0100001100110101
0010110001111101
0001111101101010
0111100010110110
0101010111010011
1000011111101100
1111011010100100
1000000000110111
1010010000111110
0100111010001101
1111100100011011
1000101001101010
1011101010100100
1000001100010010
1011101100001001
1111100111011101
1000110000001100
1011101101011111
0011100110100110
0100010100001100
1001100000001111
1111001110101101
1010110001101011
0000001111010010
1101101010101100
1100011111011010
0111000000010100
1010011111010111
0010111000101000
0010010010110011
0000001101100011
1001111010010100
1111001000010100
0110010101000001
1101001010001100
1110011100111010
0101110100001100
0101001011100110
0111110101001000
0000001100011111
1000010000111110
1101011001010000
0110111110000010
0010101000001001
1010101000001011
1001100110100110
1101011101101101
0011101110001001
0110011011011010
0100000011001010
1000010111011110
0011111001111111
1001000011111110
0010111000010100
0010100011101101
1100011101100001
0111011111101000
0010100111010001
0000001001010111
1100101111110001
0110000000101101
0000010000101011
0110110000000011
1001011100100100
0111110011010110
0100001111110101
0111011000111010
1000001100110001
0010110011011111
1100010110011110
1100001101111111
1011110101100011
0100110100111100
0101101110110100
0000110111100001
0110110010101111
1100101011000000
0000001110100100
1000001001100110
1011110010100110
0110101100001111
1101010101100111
1011001010001001
1000001101100110
0000001111001110
1101001110010110
0001010100101111
0101011011000100
0100010011010101
0100111001101010
0010011000011011
0001000100011110
0100110001010111
0111101111001100
0111001101100100
1010110101101100
1010001100001001
1100111011101111
1101000010101111
0010111001110000
1000010001100010
0101010000100100
0011011100001111
0011001010100011
1010111110110111
0000111110000111
0101010111000011
1010001010101000
0001010010010100
0101000001101010
0001111111011010
0000010100000110
1001000101101000
1100100011111111
1011111110010011
0010010001111101
0000111100011101
1111001100100101
0011111101100010
1101100110011100
0011011000110010
1100100101001001
1111100011000101
0110111111101011
0110001000011000
0010001101010010
1100001100001001
1010101100000110
0000001100101110
0100001100010111
1110001011011111
1111110110000011
1111111011110110
1010001100101011
1000010111110111
1101100101000111
0010110101100011
0010101101100110
0011001101101010
1010000000010011
0010101001100110
0101110100001110
0101101100000010
0111110100100010
0111011101010101
0011000100100111
1101110110011001
0100101011001011
1101011001101000
0100100011000111
1011001111011000
1011000001101101
0111111110101001
1110101001101000
1000101110011110
1110000010011110
0101000101110110
0100110111010001
0011100111000011
1000010100010101
1011000100110010
0101011111110110
1011101011100010
0000010001001110
0011001011010100
1001010101001110
0011110100001110
1101100010111001
1000111000101110
0110010001000010
1111100111001111
0100100001010011
1100010011111000
0111000010111010
0010011100100011
1010011001000110
1101011010110110
1111001101001111
1000011110111010
0010011000001101
0000010101100101
0100001100110110
0100000100010000
1111000110100001
0001101010101010
1101110010001110
1110110110101000
0101101001011010
0011010110000000
1001010010110000
1100011111111011
0010111010011111
0000101011000101
0001011001111101
0100100011011111
1010100100000000
1101011010110011
0111110001100011
1100101111111101
1101111101110100
0011000010111100
1101001011100100
0000110010001110
0101110010111111
0001110111011100
1100100000001001
0101001000010000
1110100010011101
0000110011000011
1100000000000101
0011001111101000
0010001000111011
1011110101101010
0010011110111001
1111110111001110
0010000000110001
0100001110011110
0000111110011110
0011000011001000
0110010111001111
1001100011100001
0010100010001001
0000011010001111
1000001101000111
0001110010011110
1101110000101010
1000011110010011
1100010011001011
1011010001000001
1011110100110111
0010010010011100
1100011100110010
1000100010101100
1000010111100001
1001110101100111
1001010100100101
1111011000110011
1000101101101001
0100001010101000
1100011100100100
0111101011110010
1100010101011101
0010000010111000
0111001110000100
1100110011011010
0110000100010101
0100001000000000
1000101011111000
1000011100100101
1001010111100011
1111111111010000
1110100011100101
1000000111010100
0000011111010001
0011111001111000
0010001110000010
1001000100101001
0101011011010010
1100111110011100
0001011010011110
0110110001111001
0011101010101011
0100111010100001
0101011100010000
0001001100101001
0101011110111110
0100110110110110
0111110111111011
1100000000010100
1101011011101110
1001111110110000
1000100011110000
0000011000100000
1001000011101111
1000101000001010
0011001101000111
0010001100001011
1001101000000100
1011100011011011
1101001011101100
0101011110110010
1010010010101110
0001000110111101
1110010101010000
0110110110110110
1010010111110100
0110001101000100
1000000001001011
1100010000111001
0110001000101001
0101011000101001
0111100000011111
1110011110001011
0110001101110101
1011000000000111
1001111000011110
1110100010101111
0010001101110110
0111101010000011
1010111011010000
0100111001010110
0101110101001001
1110100000110001
0010101100000010
1101011000100110
0111110111011001
1110010100101111
1111110111111110
0010011000110010
1001000110011000
0101001000111110
1111000000110111
0000010001101100
1111001000010010
0110011100111101
0000001111011011
1101000110101111
0101110011110010
1010001100101010
0010111011101110
1101000100101110
0110100111100000
1001111100010111
0111100011010010
1001000101000011
1000000011110010
0100100000110110
0001100000101111
1101101101111000
1100110000111101
0001101110100000
0101001100101110
0011111010101010
1110001100111001
1000001011111011
0011101000010001
0110001001111011
0001010101000000
1101100110011110
0011111100100000
0110001100101001
0111000111110000
1010001100101110
0110111111110111
0001010011101101
0111000111111110
0101110100111011
1010011110101010
1000010011000011
0110010101111101
0011100110011000
1111101100011000
1111001011111001
0001001110011100
0011001111000001
0011111000111010
1000111000011110
0101001000010111
0100011000001111
0001111010011101
0110101111011000
0000011001011100
1110101000110000
1100010100111001
1010100000111100
0111001010001110
0011101100010011
1010011110110010
1010000010100010
0110010001110000
1011000100110101
0011000000100011
1000111110001010
0100100011000111
0010111101110101
1100111111111101
0111000011110111
0001001111101111
0001011011100001
0001000010001001
1000110101000110
0010111011110111
1101110011000001
0110101100010110
1111110000010101
0010011011010101
0000011001111011
0011101111111111
0101001011001000
0110001010110001
1001000010111001
0111000101000100
1001111111011100
0000110011010101
0101001111011011
1101001010001000
0001010110010000
1110001011101111
1000000101101101
1000101111001010
0100001000111000
1111101101011110
1010000101101100
0100101010111110
0011101110101111
0100110100110001
0011101101011101
1001111100101100
0101001010110011
1111001011010111
1110101110011001
0101110111001000
1000001101100101
1111101001111111
1001111001010111
0100111000010011
1000010011000110
1000011001010011
1100110011000110
0000000011111100
0010111101101001
0110000001010001
0011011101100000
0000100001110110
0000011100111110
1010011001011101
1100101110100000
1110100101100000
0100110110010011
0001011011100010
0010001110110101
1101110110100101
0001100111100100
0110111101011001
0011010001001000
0101111101001101
0111100110100111
1110011011100011
1110101011010110
0111010110011101
0011000011101000
0100001011010101
0000101010000110
0000100111001101
1010011110100010
1110000110100001
1111110111111100
1001100000110101
1101101101001101
0011000111010100
1011010101011101
1000011111110011
0001101000000110
0111001000100101
0101011100101111
1111001111001110
0001110110000100
0001111100101100
0111010010110001
0110100011111100
0111110011001010
1011010010000001
1000110100000110
0111010011111011
0101110000111101
0110101000110111
0110001100011111
1100110100110111
0110100111000010
1000010110000111
1100110101100000
1001111111110101
0100110111011110
0110000010100001
1110010110111100
1011111010111011
1010010111001110
1111110000011001
0110001111001001
1010101010001001
1101101011110000
1111011101111100
0111100100101111
1101000100100001
1011110110110000
1011101111000100
1000011111011110
1000011010100100
1110100110010101
0001000111101010
1111011011000011
0011001110001010
1100110011111100
1001000100010001
1000001111010100
0100010001101001
0000100111111010
0110001101010101
0000000100100011
1100011010000101
1011101101111110
0010111111110100
1110101110010100
0010101011001111
1110110111011001
1100100001111001
1100100011101001
0100011100011011
0011010110111000
0001001110111111
1101111000010100
1010100110111001
1011101010010010
1011001111000100
1001011111001011
0111111111100000
1111000101011101
1101001010000101
0100111000011110
1101010000001011
0011011111011010
1000011101110000
0111011000010101
0001001111100111
0010010111110101
1011011100110101
1101100100110011
0001011101101111
0111000110111110
0111101100011000
0100110111111100
0100110101000111
0001100000001000
1111011000101101
0101010111010010
1101101011001000
0011000110011001
1010001110010000
0101011100010011
1000101111011110
0111010111001111
0101101110000010
1011011100111111
1101110001111010
1101110011000001
1010011110001011
1111111100010100
0100000110101000
1010111110110001
0010100000010011
0011010100001111
0000000110000001
1010101011110000
1101010101001000
1000110101001110
1100000001001100
0111101111001001
0001011011110010
0011100011010000
0100011110011100
0001111101000100
0111000010011000
1111000010110100
1110100100010010
1111001101111100
1011000010000101
1101001111111101
1100001010101010
1100101010100000
1001100101010000
1111111111011010
1111100101101100
1111000010111000
0110110010111011
0111110111100100
1110111001000001
0011001110011010
1100111110110000
0000110010010011
1011111100011001
1100011011100100
1110101101011010
0010001010011111
0000111010110011
1000100000011011
0101110000010010
0111110000111001
0000001011110111
0000110111001011
1111000101010100
0011001010000011
1110110001110111
0000100100111000
1111001011100111
1011111000100001
0000111011111000
0111101010101011
1000011111100111
0001101111110011
1010101101111100
0100011100000111
0101010100011001
1101001110101101
0000001101000110
1100100010110111
0101111011110111
1101010110001110
0111001111001111
0011010111110101
1111101100101111
1010101011101100
0011010110001101
1000110110110010
1111101111010101
0001110100110100
0010101100000001
0000000101101010
1011111111110011
0011101011101010
1010110011100100
1000011111101110
1111000100110100
0000111011100101
1110001001110111
1111001010011101
1001111110110010
1100011010100001
0111111011000100
1011110011111100
0001001010110101
0011100110011111
0110101011111100
0011110111011100
1001111101100011
1010000111111111
0110110011110110
1000000010011001
0101111001100111
1101111000110100
1010010111100100
0110011111010100
0111100010000011
1010001100100111
0010111111110110
1000010111001101
0110110101010000
1101000011010111
0000110101100001
0001110010100111
1110100111101111
0010111001101010
1110000000101101
1110100001111111
0100010111001000
0000001101101001
1001011111110111
1010110001100001
0010010111110100
1011001100101110
1101110110000111
0111110110110101
0100000000111011
1011110100000111
0010000101011011
0100110011011011
1100111000010000
1101000011001100
0001010011110001
0000011011110100
0001110110001101
0011001100101000
0011101010101001
1111101010011000
0100111000111011
1101011111010010
0100100010001101
1101100101100000
0111010001000000
0111111000000101
1101100111011001
0011001000110101
0100100111110001
1011010101001011
0011000011100100
1101100100000111
1110110101110110
1110000001101010
0010010100001001
1000110001110011
0100000110001100
0011101011100000
1011010101111111
1110001001100111
0010011011110001
1100010100111001
1100110101000001
1001101100111111
1110101011111111
1110111001101101
0000111000011001
1101010111110000
1010110111000100
0001101010101101
0001001100111010
0001101110111110
1110111111101001
0011010101011000
0111011100011000
0110000010111000
1011111000110101
0000011011101001
0010001000011110
0010000001011110
1100101100010111
1101001111000010
0011000001100001
1000011111110111
1111001011110111
1110101000001101
0001000001011001
0101100010101000
0111010100110110
1100010011000000
1011110000111001
0100000000011011
1010000001110011
1111110110100111
1010110000101110
1000111101111000
1100000100001000
1001001001100111
0001110011011111
0011010101101000
1111101001001010
1001100100000110
1001000101110100
1110010011011011
1110000000010001
0010011001011000
1011101111110100
1010100010100011
0011000111011010
1111000011011000
0111101100111101
0010001100001100
0011000101011110
1001000000111011
0000111001110011
1110110110000111
1111010010010001
1101001010110001
0010011101111101
1000101101010001
0010110000000001
0101010001011001
1000001000101000
0000000100111101
0100010010001011
1111100010101101
0011100101110011
0010000110010011
1000001100001100
1100011110000111
0110010101001001
0001110000010110
0101000010111110
0001000000010010
1010110111011110
1000001010001111
1010100010101011
0111010010001110
0000111110100100
0000101101111011
0010011011010010
1110110010100011
1101101100100110
0100001110110100
0000010001101000
0100010100010111
0110100100101111
0101001010000001
1011110101011100
0110110001111001
0101111010011100
0100111010101010
0011010011110100
1110000001111100
1001101010110110
0100000111111100
0111100100010111
1111000001000100
0001000100110110
1100011100010111
0011101100111101
1100100010010111
1110000011101110
1110010011100101
1111100110101001
0011010011000010
1000011111110100
1111010000010011
0101100000000100
1100100010000000
1111010100111100
1001100100100010
1010110111111001
1111011100010110
0111100000110100
0100010110100011
1110010101001100
1010110010111110
1000000100110101
1110011000100001
0100011101100110
1100001101101101
1010100010101101
0001010011011111
1010011000100001
1010000000111101
1100011101100110
0101111010101110
1011000100111010
0100111011110110
1001110101010110
1011110110100000
0000100000011101
0001011001100101
0011100100111111
0100101111100011
0011000001101100
1000100010000101
1010000001001111
0011001011101000
1001101000001010
0111110010010101
0011000001101010
1111010111001000
0001010111000000
0110110110000011
1101000100101010
1000111100111011
1111111100000101
1101011110000100
0111000110001101
1111011110111000
0001111111001000
1011010001011001
0101111111110000
0101010101111110
0000011010111110
1000100001000110
1100101110111100
1011110001000110
0001011010010011
0001001011010100
1011000101001110
1001110010001110
0010101001110101
0001001100001011
1011010111111100
1100100011101110
1101000111011110
0011110011111000
1001101000011100
1011000010011101
1010011011110011
0110101101101000
1001110100110000
1010100011010111
1000011000100011
0000000100101111
1010001111000101
1110011100000001
1010011101001011
0110011110001100
0110110101011111
1111010101011100
1110100011110110
1100100110000110
0001010100101110
0010111111110111
0011000111101110
1101011110111000
0010010000100011
0100011001000110
0010100000110111
0100011101110101
0001000110001011
0001001011111001
1010001000111001
0011101101110001
0101001110000001
1001110100100111
0010111111110110
0111011110011000
1000111100000111
0010000000110011
1011011011101111
0011011111001110
0101100010101110
0010111001110110
0011100111110101
0100010101011010
0001101110011001
0011011111011100
1111010001011110
1111001010110010
0111101101010011
1001110010101011
0110111001100000
1011110010011011
0101110010100011
0100101001000110
1101001010000010
1000110000001011
0010010011111111
0110101010001011
0000101000111001
0110111010100011
0110001101010111
0001110101110000
1111000010100101
1110101100111101
0101000001000100
1001111001011000
0111000101101011
0001001101010111
0000010001001001
0000001010101101
0110001010100110
1100100001010110
1111101110100101
1000000101011110
1110000100011101
1101000001110000
1001101011101010
0111100001100001
1001110110100010
0110111010000000
1011111100110000
1011011000000101
0010100000001111
0100111100001010
0001010000110001
0101010010001101
1000111001100011
1011001101000100
0010100101100001
0100100011101001
0111111101000001
0011110101010100
0111110010101001
0100110111100011
1100001111011010
1011011000111000
0001101100101000
1111011100010100
1100110101000000
0100000000111111
0110100010101000
0110100110100110
1000100000101010
0010010111101010
1101001110101101
1110001100101000
0010011010000110
0101111101101110
0011010011110011
0010101011111111
0001001010011100
1010011100110001
0011101000011110
0000010110001000
0100101000110110
1100001000011111
0110010001001100
0101001101110110
1101000111001111
0011000101101100
1101000001111111
1110011001010110
1100100010000101
0000111001011010
1110111010110111
1110110011011000
1011101011111001
1000011010001101
0001111010110100
1100011000110110
0000100011000111
0101011110010000
0100001110111001
1011000010000100
1100100100011000
0101001111110001
0111101110110101
1110100010001101
0001111001000011
0000010101010010
1011001010110110
1110100110001101
0101100001100001
1010110001101011
0100101100000111
1110001010100000
0101000101010100
1101000010000010
1000100011001100
0000011100010010
1011111001111110
0110101001000110
0011110011000111
1100111001010010
0000101001101010
1110000010111110
0110001011111010
0110101101110010
1100011110000110
1001110011101101
0011001010011010
0000010101110011
0111011110101110
1101100110010111
0001011011100100
1011111010010110
1101000110111000
0100011000111001
1101111000110011
1110001010011010
1110000110111100
0011001010010010
1011000000110110
0100111100101101
1001100110111100
1110111010011001
1001010001100101
0110010010111011
1001001000000010
0010110110100011
0111110111110011
0010001011100111
1000111101111010
0010110100001111
1001101010110100
0100111000100001
1111010011101010
0101110000111001
0101011011111000
0101110101110010
0100101011011010
1101111011001001
1100110010011010
0110011011101111
1000101111001101
1101100101010101
0010110100000010
1010011100010001
0110011100000001
0100110110011111
0111000111110110
0111010011101100
0010001000010100
0111101111101100
0101111101100001
1010101101110010
0111111010100100
0100101011111101
1011001010111111
1000101000011111
1011110101010000
0000000010101100
0011011001011000
1110001001100110
1011111101110110
1010011010101101
0100011110110101
0110001000001010
1001001011011111
1001100110100110
1010101010100110
1011101101100111
1110110111010010
1011100000101101
1010001111001000
1110001111111100
0111000000001011
1010000011001100
0001010100010000
0001110110010001
0001100100100011
1110000011000000
0010101001111000
1001011110110100
1100101111000111
0011100011100101
0001101010111100
1110100010001100
1110010001110101
1101110101001111
0001100000001010
0101111011100011
0110011000010111
1111101100111110
0100011001110001
1101001100011110
1010000011000001
0101000011001001
1001110100101110
1110011011011010
0101011001110001
0111101101010101
0000011000011001
1010101000111011
0011110101010101
1111100101100001
1001100100000110
0000100100100010
1010001101101000
0111110000110111
0011000101011100
0011010100010010
0001011110110100
1111011110111111
0000011100101111
0000100111100101
1111011100010110
0110010001001101
0111001001110101
0000110110010101
1011001111111011
1111100110011000
0110111000010011
0101100101000000
1010000001011111
1101011110111010
0010110101110011
0011110111011000
0110100111001111
0100100011010111
1000101101111100
0010101001110100
0001101110100011
0110100100101110
1100000110000110
0010111111110000
0100101110011111
0100111110101101
0011000010010100
1101000010111010
0011100000111011
1111001101001111
0101111110101100
0001011100111010
1001111100101100
0111100011010010
1001100101110101
1010011010110110
1001011010010000
1010100100010000
0101011100100010
0001000111100010
1001101101111101
0010111010001110
0111111010110011
0100111011001010
0110001101100010
1011000001000000
0011101010111110
0010001001000011
1011010110000011
1101100100001110
0101010111010001
0010010101001010
0001110010001001
0110111101111111
1101010101001101
1010110001001100
1001111000111000
1000000100111001
1010110001111010
0001110011101110
0101011011000011
0111110100101101
1000101010101111
0010010001110110
0111011010100010
0111101111010000
0011010101001010
0010010101000110
0011100111110000
0001000100000001
0010001001000111
0001101101111110
0111111001010011
1110110101110101
0010110001100100
1111000101101000
1010111111010011
0111010111010111
1110010011111001
0011101011011010
0000101110000100
1100111011101110
1100000101110110
1111000101110100
1000111001001011
1010111110110000
0110011101010101
1100011000111001
1011001111111000
0110010011000100
0000111010110110
0101110010000110
0110100000101000
0100101101101001
1101111011001011
1110101001011101
1001101100011010
0111100001100100
1001110010100001
1111000101101110
1100001101010111
1001011000011001
1111010101111001
1000010011100000
0110001101010100
0101011010110110
0110111100101100
1110001011110011
1001011101011110
1110001101001001
1110011010000111
1111001101000110
1001101001101101
1000010000101101
1101001111110001
1000111111100010
1000001110010011
1000000100101110
1101010000000110
1110001000001101
1000100101011010
1011110010000000
0100110011111000
1000110001100001
0000111010101100
0000100100010011
1101100010111111
0001001101101110
0111110011010000
0110100100011111
1011100011101100
1001100011100100
1000010111010000
0111010001011011
0101101011111111
1010000010011010
0101111000110000
0010101001111111
0000100110101000
1010111011011001
1101000101000001
1111010111011110
0000000110100000
0010010010010011
1111101011011001
1000110101010000
0010101110010011
1101010111110110
1010011001010101
1011010001101101
1001001111000001
0100010101110001
1110111000100110
1111001001001000
0101010001011110
1100111111011000
0111100010101101
1110111111111000
0000101100001010
0000101110011111
1000010110110100
0101010101110011
1000100111011000
1100011100100111
1100010001110110
0111000010101010
0011011000000101
0101010000011000
0100100000101111
0011010010011001
1100000111100100
0101011010010000
1000111011000101
0000110100110001
0111100101100010
1110001100011110
1111011111000011
0000010100110000
0101111101111101
1100010000111110
0011100111000101
0101000001011010
0110100100100001
1011101111010000
0010001011101010
0111001010000101
0101000000111011
1000101110001111
0001111101010011
0011010111110111
1001110010001111
0111011101000000
0011101100101010
0011100101010001
1111111110101001
0110001110100010
0000110011010000
1100111100111011
1100111011100100
1111001011001010
1111110010110101
0101101110101111
1110000011010011
1101000111101000
1110111011100100
1101000101110001
0000110111000001
0110110101111010
1011001111011101
1110000111001101
1100111001010000
1101010011010101
1110001010100011
0101011010100111
1010010101000111
0101100011000001
0010010011101001
1001011000000100
0010111111111110
0001010001110000
0100011000001100
0100101000001001
1011111111000001
1111010001111011
0110100001111011
0011001100100010
1100101110001101
1101111000111001
0000001111100100
0101101001101100
1011010101110101
1101001000011010
1010100111111001
1000100011101000
1100010111110011
0100001110000100
1000101000111100
1010000101000011
0100110111011000
0100110011011100
1000111101000001
1010101101001010
0111101100000001
0110001100110011
1010110101100110
1110110001101011
1100001011110110
1010000010001010
1000110110100010
0000101011010101
1000000010011000
0011100110000010
1000011101011101
1011011011001011
1010101011100111
1111111111001100
1010001000100111
0101001010010010
1001111111010001
0010000110110001
0110110100001011
1011101010100100
1001011001001010
1100101110011111
1101101110100011
0010100111000011
1011011000000101
0010110010111010
1100100011101001
0111000000010100
0011001101110110
0101000111011001
0110001000100111
0111000001001110
1111011010000001
1000111101110000
0010110010110001
1000110100110000
0010000111000111
0110110101000100
0011010010110000
1100101011101011
0100000010011100
1100111100100001
0010011111001001
0011110000010110
0001001001010010
1000100100110000
0011100001011000
0101111001000111
1111001111011001
0110111100001000
1100100010100100
1101100110010011
1110011010101001
1111100110100011
0000010010000110
1011000111110111
1111111101101111
0110101110000000
0010001001110111
1111001110110101
1100110001100010
1110000001101101
1101110011000110
0001000110000011
1100001011101111
1001011111001011
0011011111000111
1011101111011100
1110101100000010
0010100001111110
1110111010011010
0000000000010010
1010000011001111
1111000110111101
1010101011110110
0011011011011110
1111010111010011
1010100101011000
1100010001000111
0000111110101011
1100000001000010
0100100100100011
0010111100100001
0100011110111100
0001001010111101
1011100100101100
0001011011011001
1000100000011110
1100011110011100
0010110111111111
1110001011110110
0110000000000010
0011101010011110
0001000001111011
1101010101010110
1001011100111000
1101011101011110
1000000001111101
1101101000101011
0000101011101001
1000011011010011
0011011111001011
1001001110101011
1010100000101000
1101110000101010
1000101111110110
0111101100001110
1011110011110001
0100011110010101
1101101011010000
1101110010010110
0010010010000010
0111000011010000
0110001001100100
0001000001111100
0110011011000000
0010101111100100
0110001000111110
0000001010111100
0011111101101101
1111010011111010
0011111010111110
1010010110011000
1010100110000011
1010110101101011
1111001111111100
1000000001101110
1011001000000110
0011100000110010
1110100110111000
1100010010111110
0001111011100010
1110011111100101
0001001001101000
1100001010011101
0011111111011111
1111010011100010
1011100100111100
0011001001001000
0001101010000110
0000011000110001
0100101100110111
0000001100001111
1110000001101011
1010011000001010
1101101000100000
0001110001100111
0001011101100110
1010100011011110
0001011001100100
1110000101110100
0110101010010000
0001000011110011
0101110010111000
1000110101010011
1000101001000000
1111010111000000
0110110011111100
1101010100110111
1011010001111011
1101100001000000
1100101111000110
1001011101111000
1000100000011101
1111111101111110
1010101000111101
0010011110100000
1110100000111000
0001010111110001
1110000001011001
1010100010000110
0001001111010110
1110000000110110
0011001001000110
0010001100111100
0011010101100000
1000000000111000
1000111011101101
1010111010100010
1001010100101101
0110001000000010
0010101101000001
1110101110101010
0001011011111101
0000000111101111
1010010111000000
1100001010000100
0111000011010011
0011001111001110
1000001111100010
1100000110111101
0000110011111101
1101110101011101
1110101001010010
1000011101000111
0100011111000111
0111110001110010
0011000111100110
1100011001111000
0010100001101101
1011000001101110
0111001001010001
1000010110101010
0010010101000001
0100011101110001
1110111010111101
1110110111000000
0001010001000111
0010010110111110
0111101011000110
1100100101100101
0100111001110001
0110101011011001
0111010111000010
1000100110010100
1111100100101001
0000000001100010
0011111001110111
1100000110110001
1010100001111001
0001011010010110
1010001001100110
0010101110100000
1001101001111011
0000011110000000
0101000011110111
0001001101110001
1000110110110100
1101110110110101
1110100011100011
0110000001100000
1110011010001001
1000110010110101
1000011110010101
0111110011111101
1011101011010100
1010110101100011
1110111010000010
0101010100010000
1111001110010001
0001000101000000
1100011110100111
1100011001011101
1100101101011010
1110101111011001
0011100110111010
0001111100000100
1000000010000101
0001111001111111
1110100000000101
0111111100001001
0100011011001011
0101110011101101
0101101010000010
1100011010111000
0100110010011100
1110010001100011
0101001110000101
1010010110001100
0010011101010110
0101000010100111
0100110001110101
0001110101110100
0000110111110101
1110001110101101
0101110000101110
1011111101000111
0101001101110001
0101100101100000
1011111111000100
1110001101110011
1110011001100110
0111111000001110
1001011110001001
1111001100110000
0100110000011100
0000101111011101
1100011011011110
0011100100111010
1100011110010111
0010101000101101
0001111001000111
0001101001000100
1110010001100000
1100000101000011
0001010011110111
1100101111001010
1100001000111101
0111011100010110
0100101000011111
0110101010101010
1001000010010001
1110101111111101
1011010111110000
1001000110011101
1100011000111101
0001100110100001
0011110101110101
1010000111001001
1011111010101001
0001101110110000
0001010101001011
1101101111010100
0010111010100111
0001011110100010
0100000000110100
0011011110110011
1110011111010000
1001111000100010
0000010110011110
1101111001101100
1100000110111111
0000011111000100
1101011001110011
0110011010100011
1011111011011011
0010100001001111
1000100101111011
1010100010000000
1010001001011100
0011100100111010
1111101110011111
1100111101111110
0001011110010101
1011010001101101
0101000011101010
1101100001000100
0110001011001000
0000001111101011
0100100110101011
0011101101001111
1001000110001100
0011001100010100
0001101011011100
1111001110110010
0101111111000110
1010000100000011
1010011010101001
1110000000100011
1100101110000000
1010110100100110
1011010010001101
0011101001101110
0011100100111010
1111011101001010
1010100001111011
1001110110111100
0000000010011100
1110011010001001
0011111111001000
1011001110001010
1010010101000010
1101010110110111
0100110100011101
0011111101001100
1011000111100110
0011111100101100
0111001011101100
0110010101110101
0011111011010010
0011001101101001
0101111101111000
0110001100111001
0111000100001110
0101011101100100
0110100010000100
1110000100110101
0001010001111011
0111011100111111
1111111011111100
1100111010100100
0100111001110010
0001110011001010
0110000010101010
1000001100110001
0011010000100001
0010010101100011
0100111001111100
1100110001001010
1010101100110111
1011100110100011
0001011110101110
1101011010011111
1000001101100101
0001001010001011
1110011110001010
1110001110100011
1010011110100001
1011001011010110
1100000111110000
0111110010101010
1001011001010111
1001110101111011
1011011000011101
1100110111011010
0110001001000010
0100000101000100
0111001100100111
1010101101100110
1100000100110010
0011101000000011
0001010001010001
0111001111011000
0001001001011101
1101001101100101
0010100111001110
1011011100001111
0110111000001010
1111111010100001
0000100110010110
1111010001100110
1100001101000111
0100011000110110
1110010000000011
1101111010010110
0111111111110000
1000100110100101
1101010001010010
0000110001001010
1011110010011011
1000010110010001
0011110010110111
0110111110000000
1010100101000011
0100010001000010
0110001011000100
0011000101001110
0110111111100100
0100010001001101
0011001001010100
0110010001001011
1001110100001110
1101101000100111
1000101110110100
0011011011011110
0110110100001010
1100000001000111
0010100011000111
0110000111000111
0011101110000100
0111110100011000
0101001110000101
0001000101100100
0110111000011111
0100001011111000
1000000010000110
1000110010101101
1001011001101000
1111111101100001
1010001010100111
1000001001000001
0111000000000111
1101111011001011
0100111101111010
0000110110000011
0110001000011001
1001011101000110
0000001010110010
1101111111100001
0011110011101100
1000111010110101
0000011100000100
1001111101010101
1100001110010010
0000001101101111
1010100101001011
0101000001001011
0111011111010011
1011110111011101
1001001001001100
1001001000011001
1000100100011011
1110001111001111
1101111001111000
1010010000001001
1001111011011000
0111001110001101
0010111010101001
1001010010111001
0000011010010101
0011011010001000
1101011110010100
0101010101001101
0011010000111011
0111100110110011
0010001100010111
0000101011100111
1111111100000101
0111100000001101
0010011011001011
0001100101101101
1001100100101110
1010100010111100
1101000010100000
0011010110010100
1111000111111101
0010100100001000
1000010011110010
1101010101101100
0100011111010100
1111011001111001
0110001100100000
1111100100000011
0100011000000000
1110010001110111
1101000101101001
1101100001101010
1100010010010101
1111001010010011
0101111101011001
1011110100110011
0001101011100001
0110000101111100
1101111011100010
1111000011000110
1110101011100001
0001110011101110
0001111011100001
1101110000010111
1001010011100011
0001110111001111
0100111001101001
0101101001110010
0100001001111110
0101100010101111
0011101111001101
1110000000111001
1100011010010100
1111000101101010
1000101111000111
0010010111001001
0011001010101001
1110000100011011
1111011111100011
0100100100001100
0100001010110000
1010000010110100
0101000011000100
1010001011101000
1010111100111010
0010110111101111
1010100001110101
0100110110111010
1001110100101001
0000000001101100
0110001011001100
1101111011011001
0110000101111111
1111000100101110
1101110011011000
0010101010111001
1001000111101001
1011011111100010
1101010111111001
0110000000001101
0010111101000111
1110100101110101
0100010011000110
0110110111010001
1001000010111110
1110111010011010
1010010011001111
1111010011010010
0001100001000000
1100000001010011
1010111011100001
0101010100111110
0000101101100110
1111110111111110
1000000100110111
1101101111110000
0101010000000100
0011010000011011
1101101111101110
0110111100010001
0010010111011011
0101011001100110
1010111000111110
1001010000101101
1100100111001001
0001101011000111
0001101100011011
1010001000100110
1001010101000100
1101000011100111
0001101101010001
0111100110110011
1110100111111001
0100101011001101
0001111000010001
0001101000100100
1010100101110111
0100100111100010
0001110001111111
0000010011010010
1001010110101000
0110011101100100
0100001100101000
0100100101011100
1001110011011110
0101100100111000
0111111001000001
0010101010110110
1001100000101111
1101001100110011
0011000010100101
1101001111111000
0101111111101001
1110101000111111
1101111011000111
0001111111110111
0111111000101001
1011001010110000
1000010010111000
0100000101010001
0000100101101000
1111100010011101
1000011100010110
1011010101000100
1110111011110000
0000110110000000
0100110111111001
0100111101011111
0110001101111101
0001011100111100
0100110111111010
1011001011001010
1001111101001011
1101000010000010
1111111010101011
1110101010001101
0011010111001011
1010011010110000
0001101011110110
0100010011101101
1101101010110011
0011011100111010
0011011101111000
0110111110010111
0010011110011001
0000010011111001
1101011100011000
1101111010101010
1010110101101001
0000100100001000
1000111011001110
0110110011001001
0011100101000101
1111011011110100
1011001101010100
0000011100001001
0101100111001000
1001000111000010
1101101111000011
0011101100110100
0010000010011101
0101100011101011
0011000010010000
0101101111001110
1110010110100111
0110100001001110
0010010010101011
1010101010101100
0010100101010010
1100111100100011
1111011100011111
1000010100001010
0000010100101000
0001000110101111
0111000000010100
1000111010011001
0101011010000011
1010100101001010
0010110101100001
0001010001000010
1111101010010100
0011100101001111
1010000110000110
1010100100001000
0111110101110111
1100100000101001
0101110110011100
1101111101011111
0010010111101000
1000101101010101
1111001111111101
0110001101110010
1101000001000011
1011110101011100
1100100001001110
1011110101010011
0101110001001110
1110110011011110
1011011011111100
1001000100010011
1000100011101010
0110111101001010
0011011101101100
0110011111111011
0111100011100011
1100110101100010
0110001000001010
1001101111111101
0111100010110100
0111011011110101
0000100110011111
0101010010011101
0001011111000001
1000000000010000
1100001000101000
0100110110000000
1011100000011110
0010110001110101
1110111000110110
1101101101011101
0100010001000100
1101101101111000
1000011101010110
1101111010100010
0100110001011100
0110001100110100
0110000101010111
1011100001000010
0110100100101011
0010011011100011
0011110010011111
0011110110111111
0101101111101000
0010111001010011
1001101010110111
0101010001011010
0100101010000110
0111011010000010
0111100101111111
1001000010101010
0010100100111100
0010111001001011
1110111111011011
1010100000110101
1011111001110101
0000101110110100
1100011001001010
1001010110101000
0110100110011101
0010101011011000
1000000111010100
0010010100011101
1011111100110011
0001011001001001
0110100101010000
0101000101000010
1001100110011111
1101001101100111
0101100010001101
1110111100000111
1111110000000111
0000001111011001
1100010110000010
0110000110010101
1011100101110100
1000011000010101
1001010100000011
0001011001111000
0100101101101111
1001010010100101
1000001111001101
1100101111100100
0010001000110000
0000000010101101
0101001111001101
1001100000001111
1010011011000000
0000011011101000
0010010010011111
1110110001011001
0101100100111011
1101101110100000
0100000001001001
0101011010101010
0010101000000110
1101101111111110
0010101100010001
1101000101000101
1000110101010101
1110111110110010
0110010001101100
1000110000110000
1011100111100101
1011110110010000
1111101100110111
1110000000110000
0111100000100110
0010110111010101
0100001010001001
0010000111011101
1101111101100101
0110111110010100
1011100100111001
0101111010001100
0001110001100010
1010100000001000
0101101010100110
0010000000110110
0100010001011010
0100011101111000
0011000111111110
0100101010101000
1110001001011001
1101000100111000
1111111001010110
1111011111111010
0010110100101000
1111011110000011
1110111101011111
1000001010010001
0111101000101001
1100100011001010
0010111001000001
1010101001110111
1111001101000000
0101101101001100
1010001001111110
0000010000110001
1101111000100110
0011111010101101
0000101000010000
1111001000111010
0110111101110101
1101000100001111
1101000001011010
1010011011111010
1011111100000000
1000111111001001
1011010001111010
1000000010111111
1001111001101110
1110010101000101
0001011101001000
0011010101101011
0100011001000110
1101111110111011
0011011110110010
1001010100000010
0010110110111110
0110010000101001
1101011110110111
0111101110110011
0001001111111000
0011110001010111
1110111101001010
1101111100100101
1110110010101111
1000110011100110
1110111101001001
1100001010001011
0011011101001000
1000111011110000
1100111010110111
0100001101111101
1100100100000011
0001100111000111
0000101010110001
1001001010111011
1100011110011011
1000011100010101
1111000001101000
1001011000010001
1110111100111111
0011111100111101
1111000011111100
1101101111101001
1110101011101010
0110011100100011
0110010001100111
1100001100111111
0001110011101000
1111111001000101
1011001101100101
1001000100011100
0010010011011101
0110010000111110
0111000000011001
0110101001010010
0011100110000011
0001010011010011
1000111001000111
0011110110111011
1100110100110111
0001000101100011
0111101111011000
1100110001010011
1100000000110001
1111110110110111
1010101010001100
0111110001100010
0011110000000001
1111111101101001
1010000110010110
0110100011110100
1110110100000001
1111110100101101
1000001000011001
0110001000000100
1101100100111011
1110111101010011
0000000011110101
0000101110001001
1000101111101011
0100011100100100
0011011001100010
1101100010011110
0000111011000011
0100101100100101
0111110100010100
1000100011110100
0100100010101101
1011100001010111
1101100110010111
0111100001101100
0111000010101100
0110100100101111
0001010101100011
0110011010100000
1001001110111001
1100101100010111
0011110101000010
0010010110100010
1101101001001100
1000101001011101
1100001001111010
1101011011111010
0001011010110111
1000100101110100
1001001010011010
0000111101011110
0111100001010100
0111100111010110
0110001100100000
0100111011100100
0011000111011000
0001001010001001
1101010111011100
0110011110111010
1010000010011110
1111110001111101
0100101000100101
1011001000000100
0110001111100100
1001010001010111
1001110111010000
0111001000000010
0101110111110101
1101010110101001
1010000001111000
1100110011101011
1100001010010010
0011101110110101
0001100111111011
1011000110011000
1101110011010000
0100101011111010
1011111100010000
0011101100110011
1100001010000010
0111111001101010
0001111001100111
1001110001101111
1111101001101111
0001111101101100
0101110001110100
0011001001001011
1101011110011100
1011000110001111
0000010000100101
0011000100010011
1011011000110000
1000101010010011
0000100011101101
1000111111110000
0011010111111110
0111001111000101
0011011010000101
0011101111111100
1100110000110100
1000100001110100
0010011001000111
1000110011101110
1101111001000111
0110100011101011
0011001110001101
1000101001100110
0001101110100010
0111110010001001
0110000111011010
0000111001011101
0100100000111100
1111100010000110
1100011010010011
1101000000001000
1000100111101000
1011010101011001
1111011101010000
0000000111011110
0101110111000000
0110110001011100
1111011101001011
0000110011100110
1001100000110101
0001001000000000
0011001100111010
0101001101110101
0100010010010110
1001001100000111
1101111111010100
1111011000010110
1110000011111010
0100111011000101
1010001010001000
1000011110000001
0001001010001011
1111000001111100
1100001111100100
0110110111100011
1101010101011011
1101101011011000
1010001001101110
0110001101111100
0011111100001100
1011010000100010
0011010101000110
0111001101101011
1001101101110100
1000000100111011
0011001110101100
0100111110001110
0101010101011111
0001110101100101
0001101111100001
0111000111101100
1001110000111010
1110100010110100
0100001111100001
0111011110101100
0100000010111000
0010100010111010
1000110011110000
1010000001010101
0000010010010100
1111000000001000
1010100010100001
0110000010000011
1101110001000010
0100100110001001
0110101110111111
0001001000000101
1010001000101101
0010000011110011
1111100001111000
0111101000101000
1000010000111010
1010110111010111
1010101101010110
0000001101101011
1111000000010111
1001011010001100
1001101101111000
0110000001111011
0000110110111111
1110111110101110
0111101000110001
1011011000001100
0010000000011110
1011011010100010
1101111100110101
0001110000111101
1010001001101000
1110011111111111
1011001011011000
1011101001111100
1001000001100001
0101110010101101
0101100011010011
1100000110111000
0100011000110100
0111101100111100
1001101010001001
0111110011101100
0010101000000001
1010011000111001
0101110010001010
1110000010100110
1110110001110100
0011001000100011
1011110101001110
0001011011000001
0000000101010010
0101111110100010
0011110111011100
0110010011110000
1100001100111001
0101001010111000
0000101101101100
0110100000001111
1000101011111010
1010101111110111
1100011100110111
0111001011101000
0100110000111011
1011011011000110
0011110000011110
0111010101000011
0110010111100011
1100001101101110
0000101100111011
0000001101000100
1101001001011010
1001000000001101
1110111110100101
1101111101011101
1100110011001100
0000111011100011
1011111111101000
1101101110000100
1100001110100011
1101111111111101
0110100101000001
0100011010011010
0001110010010011
1011101011001001
0101001111001110
1011000010001111
0100001000110011
0101001110010011
0110010001000001
0001001001011000
0010000100111111
0101010010001110
0010001110111111
1000101001111000
1011000000111000
1110110101111111
1101000110100111
0000100111100110
0011111011111001
0011011111001011
0000010000110111
1110001000100110
1001000000101011
0100100111101111
1010011111010101
0000011111111111
1011000111011111
0011010011010000
0011111101101111
1001110010111010
0111010010001111
0110000111100001
1100111010000001
0001000110111010
0110000001011100
0010001100111100
1110111110001000
1110101100100001
0011101011101111
0011010011010000
1001001011011011
1010100011001000
0010011111101011
0100010010000111
1110110101101111
1011010001101100
1001100000010000
0100001101011001
1101100011100010
0110001011100001
1011100100100000
1011000010111100
0000001000111101
0110010110111111
1011010110010011
0011101001101001
0000010110100010
1101110111100100
1100011001010001
0011111011100000
0101001100001110
1100001010011000
0101110011011110
0010101110111010
0011111111010000
0101000010000100
0011000011101010
0010101100000001
0001100011000110
0101101001001111
1110000100101100
1000001111101100
1000111010001101
1010110011110110
1001010110100011
1101011111010001
0011100110001010
0010111010011001
0001110000110010
1111000011111100
1101000101000011
0101100011001101
0100110101110110
0100101001011101
0111010111111000
0010110001100000
0000111110011101
1010100011111111
0010101111100001
1100000101001110
0111000011110100
0000100001010001
1000110110001010
1011011001111100
0110100111010000
1100110100100101
0100111011111101
0111000000101001
0011000111010011
1101001110101001
1011111110001110
1111010110111000
1110101111100001
1011011110010011
1010101000000110
0001110111100101
0101101000000111
0100110100010101
0000000100011110
1001101101100010
1100101101010001
1000001011010010
1010101111001111
1011001101011000
0000101111001011
1111010100000010
0100101010011101
0101010010101100
0000101110000100
0011111101011101
0110000110101101
0100000101111111
0110100110101100
0101011010101011
1101010110101001
1011111010000110
0101101110110100
0011100101000111
1111110111111101
1011010000010000
0111111100001011
1001001101000110
1001000010001010
0110011101000010
1100110000011100
0100101111000000
0010101001110011
0000110000011101
0001110011000010
0110111011101001
1110011101001000
1011101101100100
1011110101010010
0111100001110000
0111001011111100
0000111101110110
1010011100010011
0101110110111011
1111011001011111
1011011010011010
0001100110110101
0010111100110010
1101100100000001
0000101100110110
0101000011010101
0111110101100100
0100001111100011
1010011000111011
0110111011011000
1011111111001101
1111001111001000
1100100001110101
0000011010010000
1011000100010101
1000000110000010
1001011001011111
1010011110101100
1100111010101111
1111000001111001
1001001111010000
0110011000001011
0101101011100011
0001000110100110
0110010110100000
0101000011111011
0011101110100011
0100111010101101
0100011101011010
0010000000010100
0011110010001100
1001010011101100
0110001001001111
1100110111001100
1001101011001110
1111010110000101
0111000001110111
0010001111010100
1001011000111001
1001110110010010
0011100100100000
1111001011100111
0000011011000100
0101110000110100
0001110100010111
1101110100000001
1100011011010000
1101011100111001
0010010000101111
1111000001111001
0100011010110011
0010101100101111
1101010110001111
0001011010000110
1111110100001111
1101001011010110
0001111110011110
0001110010110011
1111110011001101
0000011101000010
1101111111101110
1001111010100011
0111111100100111
0011011000000110
0111100011110100
1111000101001000
1011101110111111
0111000000101010
0100001011011010
0110101010000101
1011101010011111
0010011101111010
1111011101001000
0111010001101011
0001010010100110
1010101101000000
0001111001111100
1011110000000001
1100110100100010
0111010000011000
1101110101111100
1010011101101100
0011000000110011
0000110001111100
0100110100111100
0001110010111010
1011100111100011
1100000101100010
0111010000101001
1110101000011000
0110001001111100
1111001101101011
1100011110001111
1110100100100001
1101001111000111
1011111011011101
0100101110001100
0010000110101111
1101111011110001
0001111101111101
0101010011000011
1111000010110110
1110101100101010
0001111101111110
0001100101110100
1011000111110001
1110010111110101
1011010011010010
1010010001000010
0101011000001000
1110101000001011
0111111001100000
1011000101111111
1010100100101001
1111101010001001
1001100011000111
0011100011011000
1011101010101100
1011010000010011
1001000100000001
0100011010111011
0001100101011110
1101010010010000
0001110010000111
1101100001101101
1000010010111110
0000011011010100
0101010101100111
1101111010001000
1010100011100101
1111000111101111
0010100111100101
1001010110011100
0100000110000101
0010010101010111
1010111010101110
1010111111010101
0111110011010110
0000100101100110
0100001011100011
0110111111100001
0000001100111000
0010001110101011
0000000001110111
0010010011100111
1100011110100101
0111100111111001
0011101101101011
0101001011001000
0100000111110010
0100001110110110
0011100000001000
1000011000101000
0001100101101111
0000110000011000
0110101011111000
1111000100010011
0101001011111001
1110111101101001
0110000101100000
0101100010100001
1111011100011100
0011011110101010
0010100111000101
0110100010101100
0111110101011011
1101101010011101
1010001011011000
0111000111001011
1111001011000101
1010000001100111
0100100110100101
1110010111100010
0111100110010010
0100010100101100
0000100000100011
1111001111000011
1111001110101000
1011100111100010
1000101011111011
1100100111010011
1001110010101100
1100111101010101
1110111100101111
0000000000110100
0110011000010011
0010011101110011
0000101001110110
1010001110100100
1010010101111110
0110100101010000
1100111011100100
1001110111010001
1001001001010001
1101010100001100
0011100001101100
1101011101011001
1001010000111011
1101101101101111
0000001011010111
1100111111111010
1010101111100001
1111000111110010
0000110001100001
0100010001111111
1000101001110000
0111111110110000
0001010000100011
0101111111100101
0101011111101100
0101010010001101
0101111111110101
0110100000111000
1100000101111100
0101011000111010
0000011011000001
0011100100111010
0111011000000010
1001011110110111
0001111110000011
0010101011001001
1110001010010100
1101011100001110
1101111110111001
1110000111011011
1000000000111100
0100100101010101
1000011000011010
1111001110111101
1000000001110010
0110111101011110
0001110111000001
1001010001001011
1001011011011011
0010110110110110
0111001010000010
1110101010010010
1010100101000010
1110101011101111
1010010101101111
1101001000100001
0001001100001111
0010111111001001
0000100100011001
0100110100000111
1101110010111100
1000111111100000
1101111111101001
1010101100100101
1101111011011010
0010110101010111
0000111110000111
1011010001010010
0101011011101110
0111101000001110
1001010110010101
0010110101100111
0111111111100000
1110001001110101
0110111100110101
0110111111101110
0001010010110011
0010101000101111
1101110101101100
1000101111000001
0110101011011010
1011011011010000
1010110010111000
1100011101011010
1000011101010100
0100011000001011
0010101000000101
0100010010011010
1001001110100101
1010110010111011
1001000101110011
0011000001111111
0011111110001000
0000111111000000
1111101101011011
0101100111011100
1010111000101101
1001000110110010
0011110011110010
1011100110100101
1001110000110010
1001111001100111
1011001100111010
0000001011001100
1110110000101111
0001101100110010
1001111001001011
1111100010000100
0011010110111110
1110110111110111
1010111000011110
0101110100111110
1111001010001010
0001000101110011
1111100100101100
0111101000111100
0010100011011011
1110010001010011
0011110111010001
1100001011010110
0100100101011011
1101111010100100
1101000100011000
1110110000100000
1011010111010100
0011010010110011
0111011111111101
1100001000101111
1001001101001101
1000111000011100
1001101101011000
0001000010010100
1010011111111101
1110001011000110
1001000110100000
0111010100110110
1100100010101110
0001111011010100
0010100100111110
1110010100111011
1110100111011110
1111110110110010
0100110111111111
1011001101100001
1000011101100010
1110100101110000
1111011010011011
1111010001110101
0110101110001011
0110110110110001
0010110101010000
1010111110011110
0111110111011100
0101110111110110
0110000001110100
0010011011010101
1101111010110011
1100100010110001
1100110101010011
0011001101011100
0011101011111001
0100111000001100
0010001010110000
1111100111111110
1000011111010110
0011100110111100
1111101001101000
1100010111011110
0110000001100110
1110100100000111
1011101000001110
1011000000111000
0101001011101101
0100011101101101
1111101110000111
0000011101100000
1001111101000111
1111010001011010
1101000111011110
1111110000001010
1010010001111011
1001110101100011
1000110000000110
0110000000110011
1101100110101100
0110000010110010
1100001011011111
0010010111001011
0011011001001110
1011000001101110
0001001000010110
1111000000110000
1001011111101001
1000011111000101
1110110000100011
0000000111100000
0001100110011101
1001111000001010
1000011010011000
1110110010001010
1101100001101101
1011110101010100
0000100100111011
1011010100010110
1001000010111101
1000101111101111
0101010001000111
1000011011001111
0101010000011110
1100001100010011
0110000000011110
0010100001011100
1011011110111000
1001110111110010
1110101100000010
0110000111000001
1001110001011100
1000000000100110
0101000100100101
0111100111101011
0110000010100010
1010110100000011
1011011111010110
0101110100000110
0100100100101110
0010111100011001
0111000111110101
1100011101000011
1110111110100001
0111100011010100
1101011001111000
1010011110100000
1100110101001010
1010100000110110
0110010101011111
1110100001111111
0110110001001011
0011001000011011
0101110010000011
1110110011000000
1101111110111110
1000000000110000
0000001111011001
0110100000011101
0010000000010010
0110001101010000
0000100110100001
1111100001101011
1101101100000010
0101101010011001
1000100011110101
0010101110100001
1000000000011000
0000101011010001
1110101001100011
1001111010011111
0001001011100100
0111110000101001
0000000111000110
0110000011000100
0010011000011010
1100000111100010
0000100100111101
1100100110100010
1001110011110001
1110111101011100
1101011111001101
1011000101111100
1000111101100010
1000000100100001
0000100010110101
0111010000111101
1000000101100000
1010000111100101
1101100010100110
0001101100110110
1110111111011011
0100011101001000
1000010010001111
0111000000111000
0001111100110000
0101010001111000
0001001011101001
0111111001010010
0111101000001101
1010001000111001
1010001001011010
1111110010100000
1100000010101000
1101001100100010
0000100110000010
0101100111110010
1011000111011111
0011001001110111
1110001010101100
1001011001000101
1110010011011010
1101101001011110
0111000011010001
1001111100011110
1101001000011011
0111111100101011
1000010111111001
0101100011010011
0101010010001101
0011100100001110
1100110011001001
0100100101001110
0100000000111110
1100100110011000
1101111111010010
0110101011100100
0010010010000010
0101101101010011
0000100011100000
1010011110010110
0111101011101110
0110011100000000
0000000011010110
0111100001011000
0101000001000110
0000111101011001
1000110001011011
0001001010000111
0011100101010110
0001000110111111
0110001001000100
1011010100110010
0001101100110100
0100110101101100
0110010110011101
0001010010000001
0100111100111101
1100110110011101
1100101010110010
1100110101100100
1011101001110101
0000011010001010
0101101100101010
1001111001001000
0001110100011001
0100000100011101
1011011000111011
0111100111000111
1100110011110010
0001110010111111
1011111101000101
1001111010011100
0011101100111001
0110110001000010
0100000010000101
0010100101100101
0110101110110100
1010000101000111
1111001110001110
0111101011101001
1111111100000001
0010011000100011
0010010001011000
0001010010001111
0001000000101001
1010101101100110
1101011100100101
0000010111111000
0100000001100001
1011100011100100
0001100111111010
1101111110010100
1100100000000100
1000000011001011
0000100001000000
0011001101000101
1100001000100000
0100111001111101
1011100100010001
1110010011010011
1110101011101110
0000010110010010
0100101110011001
1011101101001111
1111111110010111
1001011110011111
1010101010100000
0000011101111010
1000101101011001
1100101111011000
0110000100101000
1010000000111001
1001010001110111
0101011100001010
0101010000111010
1011101000010110
0100010010110011
1100100111010111
1010000010110111
0101011001000010
0011110101101110
0001011011010000
0000110010001010
0111010011001101
0011111111011010
1110001111001110
1010011001010111
0111001011111001
0100000111100001
0101100010000101
1110100001101010
1011110001001001
1001011001000100
1100001010001000
1101001011011010
0101001001100110
0011101000101001
1110111000100100
0011101010100100
0010001100100101
0100111110000000
1000001001001011
0001101101000010
0101010001111100
1111110011011111
1100110101101110
1000100010111110
1111000111001110
1010111111100110
1010010100000101
0110011000010000
1111111110000010
0010110101100100
0010111001100011
0100010100100010
1010110000010111
0010101000011101
1001110011101101
1010001010000101
0000000101101101
1111101111001100
0101010101101011
0110111101011111
1010010001011001
1011001101011111
1101101101101111
1111011010000110
1000011110000111
1011101101101010
0010010001000101
0110010100100101
1001001000110100
1000111110011011
1000001101001011
0011010001111010
1111111001101010
0101100111100001
1001111011001100
