0110110000000100
1100111001111100
1111101110010111
0101010100111110
1101001011111100
0101101101010001
1100010100011011
0011011010000111
0100100101101001
0000010100011001
1011010101001100
1110101011110100
0001001100010101
0000100000100111
0000010100110111
1010001101101100
0100100111000101
0000010100011110
0110011110010111
0100001101011001
1011001111111101
1010111000010010
0111000001100111
1001100101101011
0011000000110111
0000101000011100
0000010111010111
0100100110010001
0110010010100101
0110100000101100
1010010100101001
0111110010110110
1011111110100000
0101101010110010
0111111110010000
0010010000000000
0101101000110010
1011101101100011
0000010101010111
1001001010100001
1011010001010110
0001000110101010
0110111111110101
1111100001111000
0010001100000100
1011011110110001
1111101111001101
1111101100011100
0111000110110111
0101110001010001
1010110100011110
0100101111010000
0101110110100001
1110101000100110
0110111101101011
0001011011011111
0001101111001010
1001101111011001
1111000111111011
0100111100110100
1111010000011000
1111101100110010
1011100101101001
1000001101010110
0001001001110101
0110110001100010
1011011011100001
1111011010100101
0110011000100111
0010001101011011
1000111001010101
0011000010010101
0010001110101010
1010111000011101
1100001101001100
1110000110100010
0000101011100110
1001101011110100
1010010001101000
0011101011001101
0010001111011010
0000100011000111
1111101000110010
1001011001010000
1110000011010010
1111010001101101
1110011010011011
0010001111000011
1000000001010100
1111001101111010
1111101100001101
1101001010000010
1000011100001110
0010101111011010
0110110001101100
1000001110000101
0110010111001001
1001100110100010
0010111100100110
1100011010100001
0011100110111011
1100111111111111
1001000100111010
1000011101011101
0001001100110001
0011000001000001
1101111111000101
0000000001010011
1001100000100110
0011001111111011
0101001001110101
1010010000111110
0110100100011101
1010111010000000
0100011000010010
1010011011000000
1111010101100111
1110100101111111
0100110110101110
0010100111001101
0000000100000001
1101010111010101
0001000010001011
0100110110010101
1001100010111110
0001100111100100
0011100100111011
0110100000010111
0101110101110010
0101011001100111
0110011010010100
0101110010100001
0010100100110010
0001101001001100
1110011011000111
0101011101000100
0011101110010001
0010011011101100
0110110000110000
0110000000111001
0100100000000001
0000000010010011
0111101110101010
1010001010111010
1110001000011110
0000011011001010
0101111110100000
0101001000101011
1100010001110001
0111100111110001
1011011111101011
0101000011011001
0001010010101001
1111010011101110
1111111111110111
0010111010000110
0010101001011111
0001010010110111
0010011001111100
0001011111111110
1010111101000110
0010000001000011
1000110010101111
0010110101111000
1110100000010000
0110000111111011
0111001101101110
0011000001011001
0101000111100100
1110001101100111
0010110000001011
1111011111100110
0111010100010010
1011101011101011
0110111110101010
0110110111011011
0110010111110000
1000110010100100
1101011111001110
1010111010001111
0100001000100101
0110101110001011
0111111111110011
1010101010111101
0010100000011000
1111100011100010
1001101000001000
0000010100111100
1111000111101011
0111010101010100
0010010110111111
1010010101101110
1010111101001110
1110001010100000
0111111101010001
0101000001101010
0011110000010111
0101001011100110
1101001110100001
0100111011001110
0110010100011110
0011111101110100
0010011000101110
1111010101100000
0111011010000111
0110101001111010
0000100010110111
0010100110010110
0111000110100010
1000000101100010
1110011000000010
0100100101110001
0011011110100001
1111100111100111
0100101100001001
0010101001110000
0011001100101111
0000011000110001
1101001000010010
0111111011100110
1010000101100001
1010100100110010
1000001001110100
0001011101010101
0010101111111101
0101111101001101
1111100100000110
0100000100011101
1010000010010111
1001011001011001
1111000101110101
1010100110011110
0110011101101011
1110101110110011
0100010110001001
0110000111000011
0100001001001001
0100011100001011
0110000001001110
1011101101010100
0001010011011100
0111011110000010
1011101111011011
1110111001100101
1011010011110000
0000010100101110
0110110011110000
1101101111110001
0111000111001110
0100110111101111
0011110111100011
0011011011101011
0000011111011011
1000111111111111
1011100011101011
0010111110001100
1111111001100111
1100001010000111
1101110001100000
0011010011101001
1100110110101011
0101010110011100
0100001000010101
0101100011001000
0011001010110000
0101101100000011
0101110010001100
1111001000011000
0110110011110110
1000000010000001
1111110111101101
0001001001101100
0010111100011000
0011101000101111
0011110001010000
1100000000101000
0110010110010010
0111011111111000
1101010000110001
1111110001001110
0011000000100011
0000100001101101
1010101111110111
1000000011101101
0010101011001101
1000011111101101
1110011110010010
0111001111001110
0000011010110010
1011011010000110
0000010101011111
1101110101110011
1101101001110110
0000101010110100
1010101011011011
0011101111011110
0000111010110111
0001110100101000
1110101011100011
1111011011111010
1001001111010010
0010100001011010
1110101111100010
0111010001100101
1110100100111000
1001101010001011
1011010000101011
1000101110100001
1111000100100100
1000001111001110
0001000011000100
1011110011111100
1000010110001111
0101101100001011
0010101001001101
1010010000011111
0101011100001100
1101111101010100
1110110110010101
1011001000000100
